{
    "\u0000": 0,
    "\u0001": 1,
    "\u0002": 2,
    "\u0003": 3,
    "\u0004": 4,
    "\u0005": 5,
    "\u0006": 6,
    "\u0007": 7,
    "\b": 8,
    "\t": 9,
    "\n": 10,
    "\u000b": 11,
    "\f": 12,
    "\r": 13,
    "\u000e": 14,
    "\u000f": 15,
    "\u0010": 16,
    "\u0011": 17,
    "\u0012": 18,
    "\u0013": 19,
    "\u0014": 20,
    "\u0015": 21,
    "\u0016": 22,
    "\u0017": 23,
    "\u0018": 24,
    "\u0019": 25,
    "\u001a": 26,
    "\u001b": 27,
    "\u001c": 28,
    "\u001d": 29,
    "\u001e": 30,
    "\u001f": 31,
    " ": 32,
    "!": 33,
    "\"": 34,
    "#": 35,
    "$": 36,
    "%": 37,
    "&": 38,
    "'": 39,
    "(": 40,
    ")": 41,
    "*": 42,
    "+": 43,
    ",": 44,
    "-": 45,
    ".": 46,
    "/": 47,
    "0": 48,
    "1": 49,
    "2": 50,
    "3": 51,
    "4": 52,
    "5": 53,
    "6": 54,
    "7": 55,
    "8": 56,
    "9": 57,
    ":": 58,
    ";": 59,
    "<": 60,
    "=": 61,
    ">": 62,
    "?": 63,
    "@": 64,
    "A": 65,
    "B": 66,
    "C": 67,
    "D": 68,
    "E": 69,
    "F": 70,
    "G": 71,
    "H": 72,
    "I": 73,
    "J": 74,
    "K": 75,
    "L": 76,
    "M": 77,
    "N": 78,
    "O": 79,
    "P": 80,
    "Q": 81,
    "R": 82,
    "S": 83,
    "T": 84,
    "U": 85,
    "V": 86,
    "W": 87,
    "X": 88,
    "Y": 89,
    "Z": 90,
    "[": 91,
    "\\": 92,
    "]": 93,
    "^": 94,
    "_": 95,
    "`": 96,
    "a": 97,
    "b": 98,
    "c": 99,
    "d": 100,
    "e": 101,
    "f": 102,
    "g": 103,
    "h": 104,
    "i": 105,
    "j": 106,
    "k": 107,
    "l": 108,
    "m": 109,
    "n": 110,
    "o": 111,
    "p": 112,
    "q": 113,
    "r": 114,
    "s": 115,
    "t": 116,
    "u": 117,
    "v": 118,
    "w": 119,
    "x": 120,
    "y": 121,
    "z": 122,
    "{": 123,
    "|": 124,
    "}": 125,
    "~": 126,
    "": 127,
    "<0x80>": 128,
    "<0x81>": 129,
    "<0x82>": 130,
    "<0x83>": 131,
    "<0x84>": 132,
    "<0x85>": 133,
    "<0x86>": 134,
    "<0x87>": 135,
    "<0x88>": 136,
    "<0x89>": 137,
    "<0x8a>": 138,
    "<0x8b>": 139,
    "<0x8c>": 140,
    "<0x8d>": 141,
    "<0x8e>": 142,
    "<0x8f>": 143,
    "<0x90>": 144,
    "<0x91>": 145,
    "<0x92>": 146,
    "<0x93>": 147,
    "<0x94>": 148,
    "<0x95>": 149,
    "<0x96>": 150,
    "<0x97>": 151,
    "<0x98>": 152,
    "<0x99>": 153,
    "<0x9a>": 154,
    "<0x9b>": 155,
    "<0x9c>": 156,
    "<0x9d>": 157,
    "<0x9e>": 158,
    "<0x9f>": 159,
    "<0xa0>": 160,
    "<0xa1>": 161,
    "<0xa2>": 162,
    "<0xa3>": 163,
    "<0xa4>": 164,
    "<0xa5>": 165,
    "<0xa6>": 166,
    "<0xa7>": 167,
    "<0xa8>": 168,
    "<0xa9>": 169,
    "<0xaa>": 170,
    "<0xab>": 171,
    "<0xac>": 172,
    "<0xad>": 173,
    "<0xae>": 174,
    "<0xaf>": 175,
    "<0xb0>": 176,
    "<0xb1>": 177,
    "<0xb2>": 178,
    "<0xb3>": 179,
    "<0xb4>": 180,
    "<0xb5>": 181,
    "<0xb6>": 182,
    "<0xb7>": 183,
    "<0xb8>": 184,
    "<0xb9>": 185,
    "<0xba>": 186,
    "<0xbb>": 187,
    "<0xbc>": 188,
    "<0xbd>": 189,
    "<0xbe>": 190,
    "<0xbf>": 191,
    "<0xc0>": 192,
    "<0xc1>": 193,
    "<0xc2>": 194,
    "<0xc3>": 195,
    "<0xc4>": 196,
    "<0xc5>": 197,
    "<0xc6>": 198,
    "<0xc7>": 199,
    "<0xc8>": 200,
    "<0xc9>": 201,
    "<0xca>": 202,
    "<0xcb>": 203,
    "<0xcc>": 204,
    "<0xcd>": 205,
    "<0xce>": 206,
    "<0xcf>": 207,
    "<0xd0>": 208,
    "<0xd1>": 209,
    "<0xd2>": 210,
    "<0xd3>": 211,
    "<0xd4>": 212,
    "<0xd5>": 213,
    "<0xd6>": 214,
    "<0xd7>": 215,
    "<0xd8>": 216,
    "<0xd9>": 217,
    "<0xda>": 218,
    "<0xdb>": 219,
    "<0xdc>": 220,
    "<0xdd>": 221,
    "<0xde>": 222,
    "<0xdf>": 223,
    "<0xe0>": 224,
    "<0xe1>": 225,
    "<0xe2>": 226,
    "<0xe3>": 227,
    "<0xe4>": 228,
    "<0xe5>": 229,
    "<0xe6>": 230,
    "<0xe7>": 231,
    "<0xe8>": 232,
    "<0xe9>": 233,
    "<0xea>": 234,
    "<0xeb>": 235,
    "<0xec>": 236,
    "<0xed>": 237,
    "<0xee>": 238,
    "<0xef>": 239,
    "<0xf0>": 240,
    "<0xf1>": 241,
    "<0xf2>": 242,
    "<0xf3>": 243,
    "<0xf4>": 244,
    "<0xf5>": 245,
    "<0xf6>": 246,
    "<0xf7>": 247,
    "<0xf8>": 248,
    "<0xf9>": 249,
    "<0xfa>": 250,
    "<0xfb>": 251,
    "<0xfc>": 252,
    "<0xfd>": 253,
    "<0xfe>": 254,
    "<0xff>": 255,
    " t": 256,
    "he": 257,
    " a": 258,
    "in": 259,
    "re": 260,
    " w": 261,
    " m": 262,
    " the": 263,
    " o": 264,
    "nd": 265,
    " s": 266,
    "ed": 267,
    "er": 268,
    "at": 269,
    "ou": 270,
    "en": 271,
    "on": 272,
    " b": 273,
    " f": 274,
    " I": 275,
    " and": 276,
    " h": 277,
    "is": 278,
    " of": 279,
    "it": 280,
    " c": 281,
    "es": 282,
    " to": 283,
    " d": 284,
    "or": 285,
    "an": 286,
    "as": 287,
    " p": 288,
    "ar": 289,
    " th": 290,
    " in": 291,
    "ing": 292,
    " my": 293,
    "ll": 294,
    " n": 295,
    "om": 296,
    " l": 297,
    " e": 298,
    "ic": 299,
    "ion": 300,
    "ut": 301,
    " ha": 302,
    " be": 303,
    "le": 304,
    "st": 305,
    " he": 306,
    "<0xe280>": 307,
    " re": 308,
    "ve": 309,
    "ent": 310,
    "se": 311,
    "ce": 312,
    "ot": 313,
    "ly": 314,
    " wh": 315,
    " y": 316,
    " was": 317,
    " me": 318,
    " that": 319,
    "ow": 320,
    "ld": 321,
    "ur": 322,
    "gh": 323,
    "im": 324,
    " you": 325,
    "ct": 326,
    "ver": 327,
    "ith": 328,
    "ir": 329,
    "al": 330,
    " g": 331,
    " on": 332,
    " with": 333,
    "et": 334,
    "red": 335,
    "ght": 336,
    "ro": 337,
    "id": 338,
    " u": 339,
    " for": 340,
    "ess": 341,
    " had": 342,
    "ri": 343,
    " as": 344,
    " de": 345,
    "ich": 346,
    " it": 347,
    " not": 348,
    "ain": 349,
    "her": 350,
    " we": 351,
    "ould": 352,
    "ay": 353,
    "ad": 354,
    "th": 355,
    "ation": 356,
    "ab": 357,
    " which": 358,
    "pp": 359,
    " but": 360,
    " an": 361,
    "ter": 362,
    "“": 363,
    " his": 364,
    "ge": 365,
    "am": 366,
    " con": 367,
    "li": 368,
    " st": 369,
    "ill": 370,
    "rom": 371,
    "ect": 372,
    " by": 373,
    "if": 374,
    "ch": 375,
    " fe": 376,
    " su": 377,
    "and": 378,
    " T": 379,
    " ex": 380,
    "our": 381,
    "il": 382,
    "ore": 383,
    " v": 384,
    "ure": 385,
    " at": 386,
    " sh": 387,
    "nt": 388,
    "ul": 389,
    " se": 390,
    " from": 391,
    "hen": 392,
    "all": 393,
    " so": 394,
    "est": 395,
    " her": 396,
    " this": 397,
    "ight": 398,
    " have": 399,
    "ard": 400,
    "ved": 401,
    "res": 402,
    "qu": 403,
    " is": 404,
    "ate": 405,
    "ind": 406,
    "oo": 407,
    "ound": 408,
    "ea": 409,
    "ear": 410,
    "sed": 411,
    "”": 412,
    "the": 413,
    "em": 414,
    "ome": 415,
    "end": 416,
    "reat": 417,
    "ra": 418,
    "sel": 419,
    "ist": 420,
    " al": 421,
    " The": 422,
    "ous": 423,
    " were": 424,
    "ke": 425,
    " sp": 426,
    "ac": 427,
    "able": 428,
    "ence": 429,
    " when": 430,
    " A": 431,
    "el": 432,
    "art": 433,
    " him": 434,
    " sa": 435,
    " wor": 436,
    " your": 437,
    "de": 438,
    "um": 439,
    " or": 440,
    "ust": 441,
    " un": 442,
    "ant": 443,
    "hed": 444,
    "to": 445,
    "self": 446,
    " all": 447,
    " H": 448,
    " who": 449,
    " man": 450,
    "ol": 451,
    " pro": 452,
    "ity": 453,
    "us": 454,
    "  ": 455,
    "ive": 456,
    "ff": 457,
    " M": 458,
    " S": 459,
    "very": 460,
    "ran": 461,
    " com": 462,
    "ven": 463,
    "un": 464,
    "ag": 465,
    "ount": 466,
    "ers": 467,
    "op": 468,
    "ame": 469,
    "cc": 470,
    "ort": 471,
    "ove": 472,
    "ast": 473,
    " ch": 474,
    " am": 475,
    "ness": 476,
    " k": 477,
    " app": 478,
    "os": 479,
    " des": 480,
    "ost": 481,
    "ath": 482,
    " W": 483,
    "fore": 484,
    " dis": 485,
    "age": 486,
    " up": 487,
    "ong": 488,
    " ag": 489,
    "ated": 490,
    "ance": 491,
    " will": 492,
    "ered": 493,
    " ne": 494,
    " she": 495,
    " could": 496,
    "pt": 497,
    " been": 498,
    " ar": 499,
    " are": 500,
    "ine": 501,
    " im": 502,
    "ish": 503,
    "ather": 504,
    " B": 505,
    "ood": 506,
    " one": 507,
    "ought": 508,
    "are": 509,
    " would": 510,
    "ment": 511,
    " E": 512,
    "urn": 513,
    " en": 514,
    "ice": 515,
    " no": 516,
    " r": 517,
    " do": 518,
    "one": 519,
    "ies": 520,
    "ha": 521,
    "ions": 522,
    "ose": 523,
    "ne": 524,
    "ject": 525,
    " their": 526,
    "la": 527,
    "\n\n": 528,
    "ber": 529,
    " j": 530,
    "ings": 531,
    " they": 532,
    "ig": 533,
    " “": 534,
    " mis": 535,
    " per": 536,
    " if": 537,
    " more": 538,
    "ond": 539,
    " G": 540,
    "’": 541,
    "oy": 542,
    "now": 543,
    "wn": 544,
    " F": 545,
    "ci": 546,
    ".”": 547,
    " can": 548,
    "of": 549,
    "ful": 550,
    " rem": 551,
    "ted": 552,
    "ie": 553,
    "ire": 554,
    "ep": 555,
    " P": 556,
    " now": 557,
    "ud": 558,
    " should": 559,
    "ret": 560,
    " exp": 561,
    "led": 562,
    "ks": 563,
    "riend": 564,
    "ther": 565,
    "ked": 566,
    " comp": 567,
    "su": 568,
    "ime": 569,
    " ab": 570,
    "ene": 571,
    " some": 572,
    " them": 573,
    "ward": 574,
    " pas": 575,
    " feel": 576,
    "we": 577,
    " ent": 578,
    "ry": 579,
    "ak": 580,
    "ations": 581,
    " before": 582,
    " li": 583,
    " day": 584,
    "ru": 585,
    " C": 586,
    "—": 587,
    " myself": 588,
    "au": 589,
    " any": 590,
    "irst": 591,
    "other": 592,
    " father": 593,
    "od": 594,
    "ble": 595,
    "be": 596,
    " end": 597,
    " than": 598,
    "for": 599,
    " upon": 600,
    " He": 601,
    "ife": 602,
    " our": 603,
    "eth": 604,
    "ough": 605,
    " these": 606,
    " into": 607,
    " ret": 608,
    " ob": 609,
    " its": 610,
    " bl": 611,
    " qu": 612,
    " miser": 613,
    " friend": 614,
    "ced": 615,
    " cont": 616,
    " ey": 617,
    " might": 618,
    " acc": 619,
    "so": 620,
    "his": 621,
    "lect": 622,
    " only": 623,
    "out": 624,
    " other": 625,
    " But": 626,
    " did": 627,
    "erv": 628,
    "nder": 629,
    " over": 630,
    " own": 631,
    "ied": 632,
    " yet": 633,
    " ad": 634,
    "ng": 635,
    " bec": 636,
    "ise": 637,
    "ide": 638,
    " life": 639,
    "ree": 640,
    "per": 641,
    "pl": 642,
    " Y": 643,
    " sc": 644,
    "rem": 645,
    " first": 646,
    " may": 647,
    "ild": 648,
    "ile": 649,
    " res": 650,
    "ang": 651,
    "here": 652,
    "oll": 653,
    "ake": 654,
    "wards": 655,
    " then": 656,
    " att": 657,
    " cons": 658,
    "uten": 659,
    " pl": 660,
    "con": 661,
    " said": 662,
    "fter": 663,
    "fe": 664,
    " My": 665,
    " happ": 666,
    "wh": 667,
    " O": 668,
    "ade": 669,
    " great": 670,
    " every": 671,
    " thought": 672,
    "lo": 673,
    "The": 674,
    " eyes": 675,
    "ress": 676,
    "ited": 677,
    "ary": 678,
    " creat": 679,
    "utenber": 680,
    "utenberg": 681,
    "ily": 682,
    "ents": 683,
    " ref": 684,
    "orr": 685,
    " shall": 686,
    "liz": 687,
    "lizab": 688,
    "lizabeth": 689,
    " nat": 690,
    "ning": 691,
    "ck": 692,
    " again": 693,
    " dist": 694,
    " saw": 695,
    " there": 696,
    " time": 697,
    "ten": 698,
    "old": 699,
    "ious": 700,
    " L": 701,
    "ained": 702,
    "owed": 703,
    " being": 704,
    " even": 705,
    " pre": 706,
    " count": 707,
    " fa": 708,
    "oss": 709,
    " know": 710,
    "ict": 711,
    " pres": 712,
    " po": 713,
    " what": 714,
    "ark": 715,
    "ory": 716,
    "ears": 717,
    " gr": 718,
    " found": 719,
    "ves": 720,
    "med": 721,
    "imes": 722,
    " those": 723,
    " how": 724,
    " ra": 725,
    " ro": 726,
    " imp": 727,
    "ffect": 728,
    "ally": 729,
    "roject": 730,
    "ott": 731,
    " ever": 732,
    " mind": 733,
    "less": 734,
    " disc": 735,
    " love": 736,
    " night": 737,
    " It": 738,
    " most": 739,
    "lt": 740,
    "light": 741,
    "cei": 742,
    " rep": 743,
    "way": 744,
    ",”": 745,
    " return": 746,
    " dest": 747,
    " cl": 748,
    "itt": 749,
    "ite": 750,
    "ened": 751,
    "ens": 752,
    " mon": 753,
    " hop": 754,
    "read": 755,
    "ired": 756,
    "but": 757,
    "ign": 758,
    " Elizabeth": 759,
    " long": 760,
    " towards": 761,
    " see": 762,
    " whom": 763,
    " rest": 764,
    " heart": 765,
    "ined": 766,
    "cl": 767,
    " D": 768,
    " felt": 769,
    " under": 770,
    " pr": 771,
    "ished": 772,
    "ert": 773,
    "not": 774,
    "ef": 775,
    "ds": 776,
    " work": 777,
    "uring": 778,
    "anc": 779,
    "ap": 780,
    " suff": 781,
    " death": 782,
    " pur": 783,
    "te": 784,
    " Project": 785,
    " us": 786,
    " rec": 787,
    "leas": 788,
    " ear": 789,
    " where": 790,
    "lace": 791,
    "hap": 792,
    "overed": 793,
    " mur": 794,
    "sp": 795,
    "ex": 796,
    " Gutenberg": 797,
    " such": 798,
    " part": 799,
    "ty": 800,
    "sh": 801,
    " very": 802,
    "ren": 803,
    "iness": 804,
    "my": 805,
    "fort": 806,
    "ched": 807,
    "ach": 808,
    "air": 809,
    "uman": 810,
    "eared": 811,
    " ev": 812,
    "inu": 813,
    "ving": 814,
    " comm": 815,
    " dear": 816,
    " dep": 817,
    " inst": 818,
    "its": 819,
    "ick": 820,
    " loo": 821,
    " fi": 822,
    " br": 823,
    " occ": 824,
    " must": 825,
    " after": 826,
    " pass": 827,
    "    ": 828,
    "ressed": 829,
    " hand": 830,
    " cott": 831,
    "erm": 832,
    "up": 833,
    "ceived": 834,
    " also": 835,
    "lie": 836,
    "right": 837,
    "own": 838,
    "ors": 839,
    "land": 840,
    " kind": 841,
    "ours": 842,
    "ains": 843,
    " lo": 844,
    " near": 845,
    " passed": 846,
    "aut": 847,
    " 1": 848,
    " many": 849,
    "ures": 850,
    " still": 851,
    " gu": 852,
    " too": 853,
    "itu": 854,
    " human": 855,
    " sur": 856,
    " made": 857,
    "ull": 858,
    " You": 859,
    " feelings": 860,
    " She": 861,
    " sun": 862,
    " conf": 863,
    " form": 864,
    " same": 865,
    "ured": 866,
    " spir": 867,
    " fear": 868,
    "etimes": 869,
    "ometimes": 870,
    "uch": 871,
    "erval": 872,
    "ause": 873,
    "enev": 874,
    " few": 875,
    " stran": 876,
    " heard": 877,
    " pleas": 878,
    "ord": 879,
    "ink": 880,
    "lerval": 881,
    "ged": 882,
    " N": 883,
    "ittle": 884,
    " continu": 885,
    " like": 886,
    " soon": 887,
    " while": 888,
    "ently": 889,
    " em": 890,
    " inde": 891,
    " has": 892,
    " sens": 893,
    "ue": 894,
    "ared": 895,
    " became": 896,
    " never": 897,
    "eav": 898,
    "that": 899,
    " poss": 900,
    "ition": 901,
    "man": 902,
    " child": 903,
    "roy": 904,
    "vers": 905,
    "ction": 906,
    "ower": 907,
    " let": 908,
    "ip": 909,
    "bl": 910,
    " reflect": 911,
    "ustine": 912,
    " thr": 913,
    "ised": 914,
    " mom": 915,
    " affect": 916,
    "wo": 917,
    "most": 918,
    "me": 919,
    "ible": 920,
    "Justine": 921,
    "fortun": 922,
    " desp": 923,
    "ried": 924,
    " wret": 925,
    "app": 926,
    " miserable": 927,
    " appear": 928,
    " vis": 929,
    "though": 930,
    " beaut": 931,
    " che": 932,
    "itted": 933,
    " mount": 934,
    " wat": 935,
    "with": 936,
    "no": 937,
    "du": 938,
    " about": 939,
    " appeared": 940,
    "ntil": 941,
    " ext": 942,
    " This": 943,
    "lix": 944,
    "essed": 945,
    "veral": 946,
    " place": 947,
    "was": 948,
    " gl": 949,
    " little": 950,
    " cr": 951,
    " out": 952,
    "ream": 953,
    "rest": 954,
    " tr": 955,
    "over": 956,
    "hing": 957,
    "com": 958,
    "ale": 959,
    " days": 960,
    "ceed": 961,
    " light": 962,
    " horr": 963,
    " sm": 964,
    " away": 965,
    " ac": 966,
    "oice": 967,
    "hat": 968,
    "elix": 969,
    " indeed": 970,
    " pursu": 971,
    " destroy": 972,
    " country": 973,
    " misery": 974,
    " words": 975,
    " seem": 976,
    "arm": 977,
    " mo": 978,
    " wind": 979,
    "pr": 980,
    "hapter": 981,
    "which": 982,
    "form": 983,
    " joy": 984,
    " new": 985,
    " exc": 986,
    " ga": 987,
    "ans": 988,
    " often": 989,
    " old": 990,
    "ken": 991,
    "iv": 992,
    "ec": 993,
    " hope": 994,
    "ledge": 995,
    " cannot": 996,
    " arri": 997,
    " whose": 998,
    "ult": 999,
    "cept": 1000,
    " belie": 1001,
    " during": 1002,
    " If": 1003,
    " men": 1004,
    " wond": 1005,
    "rer": 1006,
    "den": 1007,
    " friends": 1008,
    " endeav": 1009,
    " compan": 1010,
    " among": 1011,
    " supp": 1012,
    " fell": 1013,
    "ected": 1014,
    " beg": 1015,
    " inc": 1016,
    " pers": 1017,
    "ass": 1018,
    " det": 1019,
    " tor": 1020,
    " fl": 1021,
    " sat": 1022,
    " tra": 1023,
    "hy": 1024,
    " murde": 1025,
    " month": 1026,
    " world": 1027,
    " thus": 1028,
    "ouse": 1029,
    "rew": 1030,
    "int": 1031,
    "der": 1032,
    "itude": 1033,
    " nature": 1034,
    " happy": 1035,
    " Clerval": 1036,
    "aken": 1037,
    "new": 1038,
    "‘": 1039,
    " nor": 1040,
    "ase": 1041,
    " cop": 1042,
    "ense": 1043,
    " sou": 1044,
    "ever": 1045,
    " affection": 1046,
    "ney": 1047,
    "ack": 1048,
    " although": 1049,
    "ster": 1050,
    " power": 1051,
    " dif": 1052,
    " hard": 1053,
    " In": 1054,
    " fam": 1055,
    " sy": 1056,
    " much": 1057,
    " turn": 1058,
    "My": 1059,
    " present": 1060,
    " scene": 1061,
    " imag": 1062,
    "   ": 1063,
    " alone": 1064,
    " voice": 1065,
    " another": 1066,
    "ribut": 1067,
    " until": 1068,
    " gent": 1069,
    "ange": 1070,
    " cur": 1071,
    " tran": 1072,
    "ned": 1073,
    "lf": 1074,
    "joy": 1075,
    " id": 1076,
    " despair": 1077,
    " creature": 1078,
    " Felix": 1079,
    " mann": 1080,
    "eace": 1081,
    " deep": 1082,
    " years": 1083,
    " rel": 1084,
    " reg": 1085,
    " cour": 1086,
    " foll": 1087,
    "enance": 1088,
    "had": 1089,
    "ger": 1090,
    "bed": 1091,
    " ut": 1092,
    " horror": 1093,
    " cottage": 1094,
    " happiness": 1095,
    " resol": 1096,
    "well": 1097,
    " several": 1098,
    "lied": 1099,
    "ety": 1100,
    "cted": 1101,
    " lea": 1102,
    " inter": 1103,
    " came": 1104,
    " sound": 1105,
    "uish": 1106,
    "igh": 1107,
    " ice": 1108,
    " R": 1109,
    " occup": 1110,
    " We": 1111,
    " well": 1112,
    " delight": 1113,
    " deg": 1114,
    "ention": 1115,
    "orning": 1116,
    " cond": 1117,
    " call": 1118,
    "ener": 1119,
    "ates": 1120,
    " sin": 1121,
    "hes": 1122,
    "aven": 1123,
    " Justine": 1124,
    "noc": 1125,
    " moment": 1126,
    " through": 1127,
    " consid": 1128,
    " When": 1129,
    " works": 1130,
    "ourney": 1131,
    " exist": 1132,
    " read": 1133,
    " dark": 1134,
    "itter": 1135,
    "ination": 1136,
    "aw": 1137,
    " ill": 1138,
    " sym": 1139,
    " letter": 1140,
    " hands": 1141,
    " poor": 1142,
    "orrow": 1143,
    "laim": 1144,
    "happ": 1145,
    "empt": 1146,
    " far": 1147,
    " wr": 1148,
    "path": 1149,
    "mon": 1150,
    " U": 1151,
    " months": 1152,
    " wonder": 1153,
    " seemed": 1154,
    "eneva": 1155,
    " depart": 1156,
    " sub": 1157,
    "illed": 1158,
    " dev": 1159,
    " young": 1160,
    " lab": 1161,
    " prom": 1162,
    " cre": 1163,
    " house": 1164,
    "ony": 1165,
    "oud": 1166,
    " op": 1167,
    " make": 1168,
    " wood": 1169,
    "mis": 1170,
    "iz": 1171,
    "dis": 1172,
    " soul": 1173,
    "ances": 1174,
    " obs": 1175,
    "aking": 1176,
    "ants": 1177,
    " himself": 1178,
    " almost": 1179,
    " sec": 1180,
    "ainted": 1181,
    " ass": 1182,
    " without": 1183,
    "ici": 1184,
    " le": 1185,
    " inf": 1186,
    " peace": 1187,
    "ason": 1188,
    " down": 1189,
    " best": 1190,
    "oured": 1191,
    "sw": 1192,
    "cri": 1193,
    " gentle": 1194,
    " mountains": 1195,
    " fiend": 1196,
    " earth": 1197,
    " plac": 1198,
    " remem": 1199,
    "cience": 1200,
    " stud": 1201,
    " within": 1202,
    "ither": 1203,
    "oub": 1204,
    "erable": 1205,
    " morning": 1206,
    "you": 1207,
    "lic": 1208,
    "ail": 1209,
    "af": 1210,
    " V": 1211,
    "\n    ": 1212,
    " sympath": 1213,
    " since": 1214,
    " copy": 1215,
    " strange": 1216,
    " spirit": 1217,
    " took": 1218,
    "ready": 1219,
    " add": 1220,
    " enter": 1221,
    " enjoy": 1222,
    "ached": 1223,
    " They": 1224,
    "iful": 1225,
    "ided": 1226,
    " bet": 1227,
    " last": 1228,
    " innoc": 1229,
    " int": 1230,
    " cal": 1231,
    " off": 1232,
    " bound": 1233,
    "eas": 1234,
    "cess": 1235,
    "cer": 1236,
    "act": 1237,
    " idea": 1238,
    " wretched": 1239,
    "eft": 1240,
    "ertain": 1241,
    " prot": 1242,
    " therefore": 1243,
    " thoughts": 1244,
    "angu": 1245,
    " quick": 1246,
    " object": 1247,
    " journey": 1248,
    " just": 1249,
    "ments": 1250,
    " around": 1251,
    " char": 1252,
    " Ar": 1253,
    "ook": 1254,
    " left": 1255,
    " inte": 1256,
    "ister": 1257,
    " hours": 1258,
    " sometimes": 1259,
    " mother": 1260,
    " mar": 1261,
    "rees": 1262,
    "held": 1263,
    " taken": 1264,
    "ph": 1265,
    "hus": 1266,
    "hor": 1267,
    "av": 1268,
    " continued": 1269,
    " pleasure": 1270,
    " underst": 1271,
    "lectr": 1272,
    " entered": 1273,
    " Geneva": 1274,
    "\n\n\n\n": 1275,
    "have": 1276,
    " ard": 1277,
    " appro": 1278,
    " Ag": 1279,
    "ousand": 1280,
    " state": 1281,
    "rief": 1282,
    "irl": 1283,
    "ural": 1284,
    "icul": 1285,
    " live": 1286,
    " cause": 1287,
    " come": 1288,
    "eri": 1289,
    " air": 1290,
    " two": 1291,
    " term": 1292,
    "your": 1293,
    "xed": 1294,
    "ps": 1295,
    "ces": 1296,
    "It": 1297,
    " fellow": 1298,
    "ollect": 1299,
    " misfortun": 1300,
    " Eng": 1301,
    " sea": 1302,
    "ros": 1303,
    " good": 1304,
    " here": 1305,
    "ste": 1306,
    "leep": 1307,
    " list": 1308,
    " lay": 1309,
    " care": 1310,
    " bitter": 1311,
    "eng": 1312,
    "erved": 1313,
    " wal": 1314,
    "rent": 1315,
    "unt": 1316,
    "osed": 1317,
    "ib": 1318,
    "des": 1319,
    "bs": 1320,
    "?”": 1321,
    " _": 1322,
    "stein": 1323,
    "lectron": 1324,
    "lectronic": 1325,
    " family": 1326,
    " companion": 1327,
    "kenstein": 1328,
    " gave": 1329,
    " possessed": 1330,
    " sensations": 1331,
    " room": 1332,
    "ictor": 1333,
    "feel": 1334,
    "cont": 1335,
    " become": 1336,
    " adv": 1337,
    "aught": 1338,
    " remained": 1339,
    "arent": 1340,
    " knew": 1341,
    "rankenstein": 1342,
    " whole": 1343,
    " nothing": 1344,
    " gi": 1345,
    "irc": 1346,
    " heaven": 1347,
    " lear": 1348,
    " land": 1349,
    " ind": 1350,
    " think": 1351,
    "arious": 1352,
    " dream": 1353,
    "att": 1354,
    " sil": 1355,
    " tale": 1356,
    " ter": 1357,
    "ual": 1358,
    "rate": 1359,
    "oke": 1360,
    "hab": 1361,
    "dden": 1362,
    "come": 1363,
    "But": 1364,
    " existence": 1365,
    " believe": 1366,
    "ceeded": 1367,
    " nearly": 1368,
    " suffer": 1369,
    " monster": 1370,
    " discovered": 1371,
    " countenance": 1372,
    "weet": 1373,
    " express": 1374,
    "cip": 1375,
    " change": 1376,
    " prof": 1377,
    " already": 1378,
    " sudden": 1379,
    "ably": 1380,
    "ides": 1381,
    " requ": 1382,
    " each": 1383,
    " law": 1384,
    " lost": 1385,
    " dire": 1386,
    " town": 1387,
    "itation": 1388,
    " free": 1389,
    " find": 1390,
    " bod": 1391,
    "oun": 1392,
    "ating": 1393,
    "round": 1394,
    "get": 1395,
    "count": 1396,
    "ength": 1397,
    " terms": 1398,
    " Victor": 1399,
    " resolved": 1400,
    " arrived": 1401,
    "duced": 1402,
    " spirits": 1403,
    " loved": 1404,
    " looked": 1405,
    " Yet": 1406,
    "were": 1407,
    " ru": 1408,
    " enem": 1409,
    " What": 1410,
    " As": 1411,
    " girl": 1412,
    " go": 1413,
    "alth": 1414,
    "owing": 1415,
    "ceive": 1416,
    " beheld": 1417,
    "ical": 1418,
    " full": 1419,
    " sight": 1420,
    " act": 1421,
    " trem": 1422,
    "wor": 1423,
    "night": 1424,
    "ian": 1425,
    "You": 1426,
    "This": 1427,
    "ircum": 1428,
    "ircumst": 1429,
    "cerning": 1430,
    " murderer": 1431,
    " acqu": 1432,
    " beauty": 1433,
    " appearance": 1434,
    " cottag": 1435,
    " brother": 1436,
    " look": 1437,
    "ways": 1438,
    " however": 1439,
    " knowledge": 1440,
    " native": 1441,
    " refu": 1442,
    "loved": 1443,
    " play": 1444,
    "iew": 1445,
    " remain": 1446,
    "venge": 1447,
    " And": 1448,
    "ousin": 1449,
    "ended": 1450,
    "ility": 1451,
    " answ": 1452,
    " dead": 1453,
    " dec": 1454,
    "idence": 1455,
    " once": 1456,
    "irt": 1457,
    "cend": 1458,
    "oman": 1459,
    " thousand": 1460,
    " cold": 1461,
    "ont": 1462,
    "enry": 1463,
    " say": 1464,
    " set": 1465,
    "rep": 1466,
    "inter": 1467,
    " tru": 1468,
    "will": 1469,
    "val": 1470,
    "part": 1471,
    "iol": 1472,
    "!”": 1473,
    " (": 1474,
    " quickly": 1475,
    "afie": 1476,
    " called": 1477,
    " manner": 1478,
    " began": 1479,
    " beautiful": 1480,
    " instant": 1481,
    " evil": 1482,
    "rence": 1483,
    " replied": 1484,
    " lovely": 1485,
    "ploy": 1486,
    " others": 1487,
    "ruction": 1488,
    "ield": 1489,
    " desire": 1490,
    " prov": 1491,
    " How": 1492,
    "illi": 1493,
    "illiam": 1494,
    " step": 1495,
    "rible": 1496,
    "rif": 1497,
    " forth": 1498,
    " fort": 1499,
    " grief": 1500,
    " langu": 1501,
    " inhab": 1502,
    " path": 1503,
    "ank": 1504,
    " dread": 1505,
    " fire": 1506,
    " sorrow": 1507,
    " aff": 1508,
    " tears": 1509,
    "ting": 1510,
    "ored": 1511,
    "nest": 1512,
    "ling": 1513,
    "lan": 1514,
    "know": 1515,
    "full": 1516,
    "from": 1517,
    "ey": 1518,
    ".’": 1519,
    " K": 1520,
    "ross": 1521,
    " protect": 1522,
    " utter": 1523,
    " turned": 1524,
    " person": 1525,
    " endeavoured": 1526,
    "comp": 1527,
    " extrem": 1528,
    " surround": 1529,
    " guil": 1530,
    " kindness": 1531,
    "clud": 1532,
    " returned": 1533,
    " rage": 1534,
    " ground": 1535,
    "aused": 1536,
    " Chapter": 1537,
    " eng": 1538,
    "osop": 1539,
    " St": 1540,
    "olation": 1541,
    " spoke": 1542,
    " spe": 1543,
    " always": 1544,
    "raw": 1545,
    "ement": 1546,
    "oundation": 1547,
    " sol": 1548,
    "ilosop": 1549,
    "iled": 1550,
    "ific": 1551,
    " concerning": 1552,
    "irm": 1553,
    " means": 1554,
    " head": 1555,
    "ices": 1556,
    "ingly": 1557,
    "ars": 1558,
    "arr": 1559,
    " ph": 1560,
    " die": 1561,
    "iter": 1562,
    "isf": 1563,
    " food": 1564,
    " bo": 1565,
    " sk": 1566,
    " opp": 1567,
    " mod": 1568,
    " wand": 1569,
    " wa": 1570,
    "reas": 1571,
    "sion": 1572,
    "kind": 1573,
    "ace": 1574,
    "We": 1575,
    "Chapter": 1576,
    " calm": 1577,
    " placed": 1578,
    " degree": 1579,
    " hardly": 1580,
    " brought": 1581,
    " seek": 1582,
    " discover": 1583,
    "loom": 1584,
    " greatest": 1585,
    " greater": 1586,
    "cons": 1587,
    " account": 1588,
    " Foundation": 1589,
    " rather": 1590,
    " Henry": 1591,
    " His": 1592,
    " yourself": 1593,
    " spent": 1594,
    "ooks": 1595,
    "ately": 1596,
    " self": 1597,
    " viol": 1598,
    " view": 1599,
    " stre": 1600,
    " length": 1601,
    " less": 1602,
    "any": 1603,
    " hast": 1604,
    " home": 1605,
    " hour": 1606,
    " fut": 1607,
    " fat": 1608,
    "ature": 1609,
    " science": 1610,
    " snow": 1611,
    "rely": 1612,
    "vour": 1613,
    "pe": 1614,
    "fect": 1615,
    " ran": 1616,
    "fully": 1617,
    " body": 1618,
    " interest": 1619,
    "\n       ": 1620,
    "oubt": 1621,
    " tranqu": 1622,
    " diffe": 1623,
    " watch": 1624,
    " wretch": 1625,
    "enevol": 1626,
    " murder": 1627,
    " purp": 1628,
    " suffici": 1629,
    " longer": 1630,
    " hopes": 1631,
    " favour": 1632,
    " prep": 1633,
    " distribut": 1634,
    " adm": 1635,
    " lived": 1636,
    " expressed": 1637,
    " door": 1638,
    " agony": 1639,
    "atha": 1640,
    " desired": 1641,
    "aged": 1642,
    "ung": 1643,
    " Safie": 1644,
    " Al": 1645,
    "eak": 1646,
    "iles": 1647,
    " sum": 1648,
    "tern": 1649,
    " ang": 1650,
    "this": 1651,
    " use": 1652,
    "ury": 1653,
    "owers": 1654,
    "oward": 1655,
    " rend": 1656,
    " beloved": 1657,
    "ution": 1658,
    " electronic": 1659,
    " lake": 1660,
    "arly": 1661,
    " pain": 1662,
    "asp": 1663,
    "ask": 1664,
    " dang": 1665,
    " died": 1666,
    "esc": 1667,
    " circumst": 1668,
    " cap": 1669,
    "ities": 1670,
    " hor": 1671,
    " bene": 1672,
    " sweet": 1673,
    " sister": 1674,
    " mag": 1675,
    " wish": 1676,
    "some": 1677,
    "long": 1678,
    "ier": 1679,
    "As": 1680,
    " ir": 1681,
    " 2": 1682,
    " subject": 1683,
    " Un": 1684,
    " occupied": 1685,
    " diff": 1686,
    " trave": 1687,
    " tort": 1688,
    " determ": 1689,
    " persu": 1690,
    " employ": 1691,
    " surpr": 1692,
    " fixed": 1693,
    "haps": 1694,
    " attention": 1695,
    " blood": 1696,
    " endured": 1697,
    " feeling": 1698,
    " abhor": 1699,
    " comple": 1700,
    " Frankenstein": 1701,
    " For": 1702,
    " God": 1703,
    " Sometimes": 1704,
    " At": 1705,
    " spot": 1706,
    " seiz": 1707,
    " virt": 1708,
    " ven": 1709,
    "cho": 1710,
    " stru": 1711,
    "“‘": 1712,
    " anim": 1713,
    " gloom": 1714,
    "ality": 1715,
    " youth": 1716,
    " hear": 1717,
    "arch": 1718,
    " par": 1719,
    "orn": 1720,
    " dut": 1721,
    " cousin": 1722,
    " certain": 1723,
    " high": 1724,
    " filled": 1725,
    " bro": 1726,
    "enced": 1727,
    " sleep": 1728,
    " min": 1729,
    " woman": 1730,
    "æ": 1731,
    "overy": 1732,
    "by": 1733,
    " ri": 1734,
    "æmon": 1735,
    " venge": 1736,
    " vengeance": 1737,
    " anguish": 1738,
    " future": 1739,
    " philosop": 1740,
    " cottagers": 1741,
    " enemy": 1742,
    " suddenly": 1743,
    " England": 1744,
    " Agatha": 1745,
    " rememb": 1746,
    "happy": 1747,
    "laimed": 1748,
    " consider": 1749,
    " support": 1750,
    " moon": 1751,
    " destroyed": 1752,
    "exp": 1753,
    "ictim": 1754,
    " natural": 1755,
    " quitted": 1756,
    " obt": 1757,
    "ween": 1758,
    "irely": 1759,
    " perhaps": 1760,
    " perceived": 1761,
    " agre": 1762,
    " William": 1763,
    " prog": 1764,
    " unable": 1765,
    " various": 1766,
    "live": 1767,
    " hist": 1768,
    " deare": 1769,
    " give": 1770,
    "otion": 1771,
    " revenge": 1772,
    "ute": 1773,
    " eas": 1774,
    "omp": 1775,
    " cle": 1776,
    " car": 1777,
    " ca": 1778,
    "ison": 1779,
    " hide": 1780,
    " fall": 1781,
    " fr": 1782,
    " bar": 1783,
    "ati": 1784,
    " serv": 1785,
    " mine": 1786,
    " way": 1787,
    "iny": 1788,
    " take": 1789,
    "under": 1790,
    "used": 1791,
    "ught": 1792,
    "pro": 1793,
    "mer": 1794,
    "mn": 1795,
    "ell": 1796,
    "cure": 1797,
    "He": 1798,
    "choly": 1799,
    " sufficient": 1800,
    " inhabit": 1801,
    " true": 1802,
    " answer": 1803,
    " laws": 1804,
    " innocent": 1805,
    " imagination": 1806,
    " satisf": 1807,
    " visit": 1808,
    " stranger": 1809,
    " suffered": 1810,
    " creatures": 1811,
    "formed": 1812,
    " descri": 1813,
    "ages": 1814,
    " sole": 1815,
    "like": 1816,
    " convers": 1817,
    " conv": 1818,
    "ames": 1819,
    " formed": 1820,
    "als": 1821,
    "imp": 1822,
    " reason": 1823,
    " received": 1824,
    " eag": 1825,
    " ins": 1826,
    " thy": 1827,
    " drew": 1828,
    "atter": 1829,
    "erly": 1830,
    " mad": 1831,
    " wished": 1832,
    " wild": 1833,
    " went": 1834,
    " trees": 1835,
    "pid": 1836,
    "iod": 1837,
    "hold": 1838,
    "gr": 1839,
    "friend": 1840,
    "ek": 1841,
    "cour": 1842,
    "When": 1843,
    " ‘": 1844,
    " history": 1845,
    " different": 1846,
    " surrounded": 1847,
    " extreme": 1848,
    " steps": 1849,
    "aughter": 1850,
    " understand": 1851,
    "cessary": 1852,
    " between": 1853,
    " sympathy": 1854,
    " observed": 1855,
    " creation": 1856,
    " condu": 1857,
    " leave": 1858,
    " followed": 1859,
    " deeply": 1860,
    " murdered": 1861,
    " exclaimed": 1862,
    "formation": 1863,
    " mountain": 1864,
    " passion": 1865,
    "should": 1866,
    "spect": 1867,
    "ancy": 1868,
    " cloud": 1869,
    " face": 1870,
    " Oh": 1871,
    "what": 1872,
    " attempt": 1873,
    " abs": 1874,
    " period": 1875,
    " jud": 1876,
    " disapp": 1877,
    "rance": 1878,
    " proceeded": 1879,
    " allowed": 1880,
    " speak": 1881,
    "ract": 1882,
    "their": 1883,
    "they": 1884,
    " shore": 1885,
    " vill": 1886,
    " ves": 1887,
    " vessel": 1888,
    "thought": 1889,
    " itself": 1890,
    "riage": 1891,
    " gener": 1892,
    "ows": 1893,
    " meet": 1894,
    "oted": 1895,
    "ented": 1896,
    " rev": 1897,
    " health": 1898,
    " beings": 1899,
    "uth": 1900,
    " lim": 1901,
    "omed": 1902,
    " pa": 1903,
    "aster": 1904,
    "ash": 1905,
    "anced": 1906,
    "orm": 1907,
    " cor": 1908,
    "ising": 1909,
    " hid": 1910,
    "ern": 1911,
    " sick": 1912,
    " sent": 1913,
    " sw": 1914,
    " mist": 1915,
    " warm": 1916,
    "rec": 1917,
    "ze": 1918,
    "xt": 1919,
    "when": 1920,
    "ug": 1921,
    "ring": 1922,
    "dist": 1923,
    " ign": 1924,
    " easily": 1925,
    " progress": 1926,
    "escap": 1927,
    " danger": 1928,
    " rendered": 1929,
    "owards": 1930,
    " purpose": 1931,
    " tranquill": 1932,
    " language": 1933,
    " learned": 1934,
    " given": 1935,
    " copyright": 1936,
    " study": 1937,
    " secret": 1938,
    " wonderful": 1939,
    " writ": 1940,
    " courage": 1941,
    "assion": 1942,
    " small": 1943,
    " water": 1944,
    " moments": 1945,
    " events": 1946,
    "ship": 1947,
    " impro": 1948,
    " rapid": 1949,
    " against": 1950,
    " On": 1951,
    "soci": 1952,
    " quit": 1953,
    "ething": 1954,
    " endure": 1955,
    " lips": 1956,
    " entreat": 1957,
    " experi": 1958,
    "ccess": 1959,
    "ushed": 1960,
    " sail": 1961,
    "selves": 1962,
    "these": 1963,
    " seen": 1964,
    " short": 1965,
    " victim": 1966,
    " vain": 1967,
    "ouring": 1968,
    "ills": 1969,
    "aded": 1970,
    "ayed": 1971,
    "ets": 1972,
    " mean": 1973,
    " mem": 1974,
    "cell": 1975,
    " half": 1976,
    " having": 1977,
    " equ": 1978,
    " ele": 1979,
    " eB": 1980,
    "omething": 1981,
    " put": 1982,
    " doubt": 1983,
    " da": 1984,
    " covered": 1985,
    "itz": 1986,
    " benevol": 1987,
    " bur": 1988,
    "ons": 1989,
    "eness": 1990,
    "enc": 1991,
    "ative": 1992,
    "erve": 1993,
    " sank": 1994,
    " task": 1995,
    " tri": 1996,
    "<0xe284>": 1997,
    "™": 1998,
    "uished": 1999,
    "use": 2000,
    "tered": 2001,
    "rong": 2002,
    "pos": 2003,
    "og": 2004,
    "mount": 2005,
    "mand": 2006,
    "iable": 2007,
    "ili": 2008,
    "ial": 2009,
    "br": 2010,
    "In": 2011,
    " engaged": 2012,
    "lancholy": 2013,
    " misfortune": 2014,
    " promise": 2015,
    " letters": 2016,
    " sounds": 2017,
    " course": 2018,
    " manners": 2019,
    " across": 2020,
    " crime": 2021,
    " cheer": 2022,
    " visited": 2023,
    "fortunate": 2024,
    " children": 2025,
    " occur": 2026,
    " close": 2027,
    " destruction": 2028,
    " discovery": 2029,
    "medi": 2030,
    " prev": 2031,
    " creator": 2032,
    " attend": 2033,
    " resp": 2034,
    " scar": 2035,
    " because": 2036,
    "ngol": 2037,
    "ngolst": 2038,
    "ngolstad": 2039,
    "ngolstadt": 2040,
    " eye": 2041,
    " black": 2042,
    " entirely": 2043,
    "sured": 2044,
    "ief": 2045,
    " Be": 2046,
    "ishing": 2047,
    " imm": 2048,
    " desert": 2049,
    "osity": 2050,
    "ovel": 2051,
    "ortion": 2052,
    "ople": 2053,
    " unhappy": 2054,
    "uments": 2055,
    "eless": 2056,
    "acc": 2057,
    " spec": 2058,
    "ulf": 2059,
    " voy": 2060,
    " exert": 2061,
    " exam": 2062,
    " super": 2063,
    "thing": 2064,
    " wept": 2065,
    " demand": 2066,
    "rived": 2067,
    "iration": 2068,
    " melancholy": 2069,
    " hell": 2070,
    "stant": 2071,
    " effect": 2072,
    " led": 2073,
    " name": 2074,
    " inqu": 2075,
    " dæmon": 2076,
    " div": 2077,
    " dared": 2078,
    " don": 2079,
    " toil": 2080,
    " cast": 2081,
    " fulf": 2082,
    " fate": 2083,
    " fre": 2084,
    " bes": 2085,
    " bre": 2086,
    "only": 2087,
    "enes": 2088,
    " son": 2089,
    " sl": 2090,
    "ines": 2091,
    " ast": 2092,
    " av": 2093,
    " tal": 2094,
    "rous": 2095,
    "pre": 2096,
    "mit": 2097,
    "ires": 2098,
    "hood": 2099,
    "gg": 2100,
    "dest": 2101,
    "day": 2102,
    "bled": 2103,
    "EN": 2104,
    " ke": 2105,
    " ed": 2106,
    "\n   ": 2107,
    "cellent": 2108,
    " memory": 2109,
    " conversation": 2110,
    " solemn": 2111,
    " dearest": 2112,
    " seized": 2113,
    " horrible": 2114,
    " boat": 2115,
    " speed": 2116,
    " profess": 2117,
    " heavens": 2118,
    "feelings": 2119,
    " approached": 2120,
    "husi": 2121,
    " opened": 2122,
    " open": 2123,
    " regard": 2124,
    " pursue": 2125,
    "woke": 2126,
    " reflections": 2127,
    " commun": 2128,
    " commence": 2129,
    " Do": 2130,
    " rose": 2131,
    " point": 2132,
    " distance": 2133,
    " consolation": 2134,
    "anged": 2135,
    "ngth": 2136,
    " overcome": 2137,
    "rupt": 2138,
    " comply": 2139,
    "retched": 2140,
    " Par": 2141,
    " rain": 2142,
    " art": 2143,
    " arm": 2144,
    " descend": 2145,
    " Mr": 2146,
    "usion": 2147,
    " prospect": 2148,
    " prop": 2149,
    " union": 2150,
    " unf": 2151,
    "elt": 2152,
    "aces": 2153,
    "empl": 2154,
    "ool": 2155,
    "ourn": 2156,
    " exec": 2157,
    " success": 2158,
    " conce": 2159,
    " anx": 2160,
    " weep": 2161,
    " del": 2162,
    "ident": 2163,
    " why": 2164,
    " names": 2165,
    " narr": 2166,
    " none": 2167,
    " thirst": 2168,
    " threat": 2169,
    "aring": 2170,
    " past": 2171,
    " pe": 2172,
    "orse": 2173,
    " cried": 2174,
    " co": 2175,
    "itions": 2176,
    "itated": 2177,
    "itness": 2178,
    " hovel": 2179,
    " fright": 2180,
    " back": 2181,
    " bran": 2182,
    " bus": 2183,
    " ban": 2184,
    " bed": 2185,
    " something": 2186,
    " situ": 2187,
    " sought": 2188,
    " sad": 2189,
    " mal": 2190,
    "ins": 2191,
    " awoke": 2192,
    "hether": 2193,
    "heart": 2194,
    "where": 2195,
    "ued": 2196,
    "towards": 2197,
    "nat": 2198,
    "iety": 2199,
    "ium": 2200,
    "ft": 2201,
    "ches": 2202,
    "cle": 2203,
    "after": 2204,
    "ave": 2205,
    "Clerval": 2206,
    "And": 2207,
    " conceal": 2208,
    " aston": 2209,
    " scarce": 2210,
    "ency": 2211,
    " tranquillity": 2212,
    " agreement": 2213,
    " travell": 2214,
    " United": 2215,
    "reased": 2216,
    " sky": 2217,
    "iterary": 2218,
    " guilt": 2219,
    " afford": 2220,
    " fortun": 2221,
    " sufferings": 2222,
    "desp": 2223,
    " walked": 2224,
    " misfortunes": 2225,
    "ollection": 2226,
    " Arab": 2227,
    " innocence": 2228,
    " remember": 2229,
    " assist": 2230,
    " departure": 2231,
    " gaz": 2232,
    " pursuit": 2233,
    " truth": 2234,
    "blic": 2235,
    " possess": 2236,
    "lieve": 2237,
    " afterwards": 2238,
    " early": 2239,
    " undert": 2240,
    " During": 2241,
    " restored": 2242,
    " grasp": 2243,
    " precip": 2244,
    " consum": 2245,
    " scenes": 2246,
    "ideas": 2247,
    " accord": 2248,
    " obli": 2249,
    "before": 2250,
    "supp": 2251,
    "return": 2252,
    " jo": 2253,
    " does": 2254,
    "ishment": 2255,
    " necessary": 2256,
    "ope": 2257,
    "acqu": 2258,
    " There": 2259,
    "ember": 2260,
    " soci": 2261,
    " Tur": 2262,
    " Th": 2263,
    " fever": 2264,
    "chant": 2265,
    " strong": 2266,
    "amp": 2267,
    " decl": 2268,
    " associ": 2269,
    " asked": 2270,
    "othing": 2271,
    "sec": 2272,
    " hel": 2273,
    " hab": 2274,
    "icense": 2275,
    " latter": 2276,
    "inguished": 2277,
    " inv": 2278,
    " thou": 2279,
    "asion": 2280,
    " hold": 2281,
    " hon": 2282,
    " Ingolstadt": 2283,
    " bir": 2284,
    "ery": 2285,
    " mer": 2286,
    "inct": 2287,
    " tend": 2288,
    "would": 2289,
    "win": 2290,
    "ublic": 2291,
    "oon": 2292,
    "leness": 2293,
    "les": 2294,
    "lu": 2295,
    "iosity": 2296,
    "ging": 2297,
    "eks": 2298,
    "every": 2299,
    "cott": 2300,
    "cated": 2301,
    "Elizabeth": 2302,
    " escap": 2303,
    " society": 2304,
    "acquainted": 2305,
    " scarcely": 2306,
    " divine": 2307,
    " ignor": 2308,
    " frame": 2309,
    " hideous": 2310,
    " obtain": 2311,
    " determined": 2312,
    " capable": 2313,
    " fatig": 2314,
    " strength": 2315,
    " wandered": 2316,
    " solitude": 2317,
    "cluded": 2318,
    " Kir": 2319,
    " Kirwin": 2320,
    " expression": 2321,
    " silent": 2322,
    " listen": 2323,
    " ardour": 2324,
    " understood": 2325,
    "eased": 2326,
    " enjoyed": 2327,
    "disc": 2328,
    " labours": 2329,
    " labour": 2330,
    " departed": 2331,
    "happiness": 2332,
    " condem": 2333,
    "welling": 2334,
    " trans": 2335,
    " believed": 2336,
    " excess": 2337,
    " moved": 2338,
    " reflected": 2339,
    " emb": 2340,
    " continually": 2341,
    " No": 2342,
    " former": 2343,
    " instr": 2344,
    "ignity": 2345,
    "itting": 2346,
    "ceiving": 2347,
    " grat": 2348,
    " presence": 2349,
    " fair": 2350,
    " distur": 2351,
    " One": 2352,
    "who": 2353,
    "ollected": 2354,
    " accomp": 2355,
    " blind": 2356,
    " retired": 2357,
    " Ch": 2358,
    " expl": 2359,
    "cient": 2360,
    "oney": 2361,
    " Er": 2362,
    " Ernest": 2363,
    " apparent": 2364,
    " amiable": 2365,
    "agra": 2366,
    "agraph": 2367,
    " Mont": 2368,
    " produced": 2369,
    " Her": 2370,
    " allow": 2371,
    "antic": 2372,
    " word": 2373,
    "istrate": 2374,
    "seless": 2375,
    "emark": 2376,
    " vol": 2377,
    " TH": 2378,
    "chive": 2379,
    " ste": 2380,
    "pped": 2381,
    "thr": 2382,
    "ademark": 2383,
    "ady": 2384,
    " assured": 2385,
    "ries": 2386,
    " forward": 2387,
    " gone": 2388,
    " gra": 2389,
    "oth": 2390,
    "cean": 2391,
    "vey": 2392,
    "let": 2393,
    " threw": 2394,
    " powers": 2395,
    " pict": 2396,
    "assed": 2397,
    "asm": 2398,
    "anim": 2399,
    " daughter": 2400,
    " dare": 2401,
    "iss": 2402,
    " field": 2403,
    " fin": 2404,
    " fo": 2405,
    " burn": 2406,
    "enet": 2407,
    "ouds": 2408,
    " sing": 2409,
    " mention": 2410,
    " whether": 2411,
    " witness": 2412,
    " aw": 2413,
    " tem": 2414,
    "ues": 2415,
    "place": 2416,
    "poss": 2417,
    "prom": 2418,
    "more": 2419,
    "great": 2420,
    "ges": 2421,
    "came": 2422,
    "creat": 2423,
    "che": 2424,
    "She": 2425,
    "Se": 2426,
    "Gutenberg": 2427,
    " ideas": 2428,
    " right": 2429,
    " honour": 2430,
    " frightful": 2431,
    " communic": 2432,
    " donations": 2433,
    " voyage": 2434,
    " cheerful": 2435,
    " paid": 2436,
    " village": 2437,
    " conduct": 2438,
    " describe": 2439,
    " satisfied": 2440,
    " philosophy": 2441,
    " river": 2442,
    " paragraph": 2443,
    " surprised": 2444,
    " torture": 2445,
    " benef": 2446,
    " circumstances": 2447,
    "ternal": 2448,
    " Alas": 2449,
    " watching": 2450,
    " States": 2451,
    " protectors": 2452,
    "known": 2453,
    " instantly": 2454,
    " directed": 2455,
    " silence": 2456,
    "attered": 2457,
    " walk": 2458,
    " marriage": 2459,
    " justice": 2460,
    " addressed": 2461,
    "itherto": 2462,
    "mission": 2463,
    " devil": 2464,
    " curiosity": 2465,
    " north": 2466,
    " begin": 2467,
    " companions": 2468,
    " arrive": 2469,
    " pursued": 2470,
    " smiles": 2471,
    "duce": 2472,
    "bling": 2473,
    " sensation": 2474,
    " pleasant": 2475,
    " 17": 2476,
    " passions": 2477,
    " event": 2478,
    " recovered": 2479,
    " prison": 2480,
    " De": 2481,
    " clouds": 2482,
    " fail": 2483,
    " Literary": 2484,
    " created": 2485,
    "lock": 2486,
    " plan": 2487,
    "lected": 2488,
    " access": 2489,
    " bless": 2490,
    " enthusi": 2491,
    "cious": 2492,
    " perfect": 2493,
    " By": 2494,
    " immedi": 2495,
    " agitation": 2496,
    " Why": 2497,
    "unger": 2498,
    " Sw": 2499,
    "ush": 2500,
    " prob": 2501,
    " unfortunate": 2502,
    "arted": 2503,
    " spring": 2504,
    " These": 2505,
    "there": 2506,
    "ested": 2507,
    " season": 2508,
    " shad": 2509,
    " shut": 2510,
    " excellent": 2511,
    " except": 2512,
    " exh": 2513,
    " susp": 2514,
    " suc": 2515,
    " feet": 2516,
    " fee": 2517,
    " story": 2518,
    " convey": 2519,
    "thy": 2520,
    "aying": 2521,
    "idents": 2522,
    "idst": 2523,
    " gained": 2524,
    " gard": 2525,
    "ursed": 2526,
    "ote": 2527,
    "vel": 2528,
    "stand": 2529,
    "inguish": 2530,
    " information": 2531,
    " inn": 2532,
    "arge": 2533,
    "arg": 2534,
    " paused": 2535,
    " parent": 2536,
    " pret": 2537,
    "orne": 2538,
    " draw": 2539,
    " dro": 2540,
    " told": 2541,
    " city": 2542,
    " hunger": 2543,
    " hate": 2544,
    " hat": 2545,
    " hatred": 2546,
    " firm": 2547,
    " fled": 2548,
    "atory": 2549,
    "ering": 2550,
    " sense": 2551,
    " sledge": 2552,
    " mut": 2553,
    " mat": 2554,
    " med": 2555,
    " want": 2556,
    "inte": 2557,
    "inal": 2558,
    "hel": 2559,
    "ying": 2560,
    "ww": 2561,
    "und": 2562,
    "sc": 2563,
    "pse": 2564,
    "par": 2565,
    "oint": 2566,
    "occ": 2567,
    "mitted": 2568,
    "lish": 2569,
    "jud": 2570,
    "just": 2571,
    "ix": 2572,
    "how": 2573,
    "ev": 2574,
    "could": 2575,
    "bur": 2576,
    "aff": 2577,
    "Wh": 2578,
    "Do": 2579,
    "Al": 2580,
    "burgh": 2581,
    " enthusiasm": 2582,
    "cottage": 2583,
    " Turk": 2584,
    " obliged": 2585,
    " undertaking": 2586,
    " Arabian": 2587,
    " branches": 2588,
    " people": 2589,
    " species": 2590,
    " carried": 2591,
    " clear": 2592,
    " remembered": 2593,
    " duty": 2594,
    " magistrate": 2595,
    " admiration": 2596,
    " favourite": 2597,
    " waves": 2598,
    " modern": 2599,
    " utterly": 2600,
    " acquainted": 2601,
    "countenance": 2602,
    "country": 2603,
    "iculty": 2604,
    " charact": 2605,
    " charge": 2606,
    " objects": 2607,
    " better": 2608,
    " bestow": 2609,
    " least": 2610,
    " woods": 2611,
    " devoted": 2612,
    " darkness": 2613,
    "ighb": 2614,
    " following": 2615,
    " related": 2616,
    " presented": 2617,
    " famili": 2618,
    "hys": 2619,
    " torment": 2620,
    " detail": 2621,
    " increased": 2622,
    " excited": 2623,
    "prise": 2624,
    " reflection": 2625,
    "versity": 2626,
    " Let": 2627,
    "These": 2628,
    " greatly": 2629,
    " consent": 2630,
    " mighty": 2631,
    " quest": 2632,
    " retreat": 2633,
    "been": 2634,
    " expected": 2635,
    " expect": 2636,
    " perp": 2637,
    "igure": 2638,
    "haust": 2639,
    " enough": 2640,
    " Even": 2641,
    " need": 2642,
    " agree": 2643,
    "asted": 2644,
    "orted": 2645,
    "olate": 2646,
    "olved": 2647,
    "ument": 2648,
    " alter": 2649,
    "resh": 2650,
    " herself": 2651,
    "estic": 2652,
    "allowed": 2653,
    "ulated": 2654,
    " shud": 2655,
    " feared": 2656,
    " stars": 2657,
    " stream": 2658,
    " sto": 2659,
    " conceived": 2660,
    " wel": 2661,
    "aint": 2662,
    " forget": 2663,
    "alt": 2664,
    "verse": 2665,
    " met": 2666,
    "otions": 2667,
    "sem": 2668,
    "stru": 2669,
    " lady": 2670,
    "armed": 2671,
    " pap": 2672,
    " pity": 2673,
    " ceased": 2674,
    " ce": 2675,
    "itary": 2676,
    " har": 2677,
    " fresh": 2678,
    " books": 2679,
    " bree": 2680,
    " breat": 2681,
    " sign": 2682,
    " slight": 2683,
    " ocean": 2684,
    " ought": 2685,
    " motion": 2686,
    " winter": 2687,
    " wis": 2688,
    "reg": 2689,
    "ref": 2690,
    "into": 2691,
    " apart": 2692,
    " tried": 2693,
    " times": 2694,
    "whel": 2695,
    "ually": 2696,
    "tr": 2697,
    "ror": 2698,
    "pers": 2699,
    "oved": 2700,
    "might": 2701,
    "iet": 2702,
    "ior": 2703,
    "hind": 2704,
    "Thus": 2705,
    "Project": 2706,
    "No": 2707,
    "How": 2708,
    "ER": 2709,
    " ve": 2710,
    " parents": 2711,
    "argare": 2712,
    "argaret": 2713,
    " garden": 2714,
    " exhib": 2715,
    " condemned": 2716,
    " fatigue": 2717,
    " associated": 2718,
    "natural": 2719,
    " Paris": 2720,
    " slow": 2721,
    " break": 2722,
    " benevolent": 2723,
    "itzer": 2724,
    "itzerland": 2725,
    " eBook": 2726,
    " sailors": 2727,
    " experienced": 2728,
    " rapidly": 2729,
    " limbs": 2730,
    " inhabitants": 2731,
    " certainly": 2732,
    " duties": 2733,
    " gloomy": 2734,
    " virtue": 2735,
    " complete": 2736,
    " employed": 2737,
    " beneath": 2738,
    " guilty": 2739,
    " dreadful": 2740,
    "rific": 2741,
    " trembled": 2742,
    "gether": 2743,
    " dreams": 2744,
    " advanced": 2745,
    " English": 2746,
    " approach": 2747,
    " Archive": 2748,
    " wretchedness": 2749,
    " studies": 2750,
    "miserable": 2751,
    " write": 2752,
    " degrees": 2753,
    " occupations": 2754,
    " leaves": 2755,
    "ception": 2756,
    " trademark": 2757,
    " waters": 2758,
    " chem": 2759,
    " possible": 2760,
    " fears": 2761,
    " occasion": 2762,
    " inste": 2763,
    " instead": 2764,
    " committed": 2765,
    " evidence": 2766,
    "myself": 2767,
    "spir": 2768,
    " prin": 2769,
    " longed": 2770,
    " repose": 2771,
    " pressed": 2772,
    " evening": 2773,
    " OF": 2774,
    "anging": 2775,
    " overwhel": 2776,
    " contempl": 2777,
    " blue": 2778,
    "akes": 2779,
    " themselves": 2780,
    " above": 2781,
    " compassion": 2782,
    " remorse": 2783,
    " remains": 2784,
    "never": 2785,
    " round": 2786,
    " noble": 2787,
    "arewell": 2788,
    " arran": 2789,
    "ption": 2790,
    " neighb": 2791,
    " next": 2792,
    "osom": 2793,
    " changed": 2794,
    "ortun": 2795,
    " proceed": 2796,
    " proc": 2797,
    "ustomed": 2798,
    " After": 2799,
    " Their": 2800,
    "endeav": 2801,
    "endous": 2802,
    "alley": 2803,
    "uls": 2804,
    " vast": 2805,
    " van": 2806,
    " sust": 2807,
    "change": 2808,
    "ection": 2809,
    " storm": 2810,
    "ability": 2811,
    "abin": 2812,
    " ask": 2813,
    "rive": 2814,
    "rose": 2815,
    " gre": 2816,
    "alities": 2817,
    "iment": 2818,
    " white": 2819,
    " reality": 2820,
    " render": 2821,
    " hero": 2822,
    " behold": 2823,
    " belong": 2824,
    "icked": 2825,
    " eternal": 2826,
    " three": 2827,
    " thing": 2828,
    " public": 2829,
    " peas": 2830,
    "orious": 2831,
    "org": 2832,
    " cabin": 2833,
    " hitherto": 2834,
    " hills": 2835,
    " hur": 2836,
    " figure": 2837,
    " fancy": 2838,
    " fond": 2839,
    " fro": 2840,
    " fal": 2841,
    " bosom": 2842,
    " bright": 2843,
    "ences": 2844,
    " money": 2845,
    " mourn": 2846,
    " mus": 2847,
    "inced": 2848,
    "inf": 2849,
    " age": 2850,
    " aid": 2851,
    " tear": 2852,
    "until": 2853,
    "she": 2854,
    "pres": 2855,
    "oid": 2856,
    "oor": 2857,
    "nific": 2858,
    "ives": 2859,
    "gutenberg": 2860,
    "cent": 2861,
    "Yet": 2862,
    "RA": 2863,
    "IT": 2864,
    "His": 2865,
    "Be": 2866,
    " J": 2867,
    " false": 2868,
    " breeze": 2869,
    " familiar": 2870,
    " Switzerland": 2871,
    " witnesses": 2872,
    " burning": 2873,
    " picture": 2874,
    " apparently": 2875,
    " ignorant": 2876,
    " help": 2877,
    " gazed": 2878,
    "despair": 2879,
    " arms": 2880,
    " edu": 2881,
    " keep": 2882,
    " superior": 2883,
    " respect": 2884,
    "position": 2885,
    " trial": 2886,
    " corpse": 2887,
    " disappeared": 2888,
    "course": 2889,
    " eagerly": 2890,
    " minut": 2891,
    " broken": 2892,
    " strugg": 2893,
    " abhorred": 2894,
    " violence": 2895,
    "acey": 2896,
    " solitary": 2897,
    "cluding": 2898,
    " Krem": 2899,
    " Krempe": 2900,
    " provide": 2901,
    " looking": 2902,
    " ruin": 2903,
    " direct": 2904,
    " terror": 2905,
    "continu": 2906,
    "feeling": 2907,
    "ibly": 2908,
    " bitterly": 2909,
    " listened": 2910,
    " ardently": 2911,
    " ardent": 2912,
    " enterprise": 2913,
    " bestowed": 2914,
    " secure": 2915,
    " promised": 2916,
    " illness": 2917,
    " considerable": 2918,
    " considered": 2919,
    " Rh": 2920,
    " uttered": 2921,
    " follow": 2922,
    " relate": 2923,
    " curse": 2924,
    " endeavour": 2925,
    " smile": 2926,
    " crimes": 2927,
    "mann": 2928,
    " forms": 2929,
    " confess": 2930,
    " sunk": 2931,
    "shall": 2932,
    " particul": 2933,
    " earnest": 2934,
    " recollection": 2935,
    " record": 2936,
    " restore": 2937,
    "ignation": 2938,
    " rock": 2939,
    " rav": 2940,
    " pover": 2941,
    " poverty": 2942,
    " known": 2943,
    " preced": 2944,
    " prey": 2945,
    " Lacey": 2946,
    " License": 2947,
    "losed": 2948,
    "fell": 2949,
    "conf": 2950,
    " plain": 2951,
    " attent": 2952,
    "sole": 2953,
    " contr": 2954,
    " anyone": 2955,
    " able": 2956,
    " explan": 2957,
    " remark": 2958,
    " permission": 2959,
    " perform": 2960,
    " rushed": 2961,
    " ram": 2962,
    " Bl": 2963,
    " neck": 2964,
    " neg": 2965,
    " displ": 2966,
    " diss": 2967,
    " Wh": 2968,
    " applic": 2969,
    " chief": 2970,
    "again": 2971,
    "unge": 2972,
    " Margaret": 2973,
    "ffort": 2974,
    " mankind": 2975,
    "antime": 2976,
    "death": 2977,
    "dered": 2978,
    "acity": 2979,
    "aced": 2980,
    " along": 2981,
    "isted": 2982,
    "them": 2983,
    "inds": 2984,
    "quis": 2985,
    " soot": 2986,
    " valley": 2987,
    " val": 2988,
    "ilst": 2989,
    "ource": 2990,
    " To": 2991,
    "ified": 2992,
    " stood": 2993,
    "lief": 2994,
    " conn": 2995,
    "amber": 2996,
    "amed": 2997,
    " ange": 2998,
    " weak": 2999,
    " delive": 3000,
    " ascend": 3001,
    "ripp": 3002,
    " forced": 3003,
    " und": 3004,
    " gover": 3005,
    " gro": 3006,
    "versed": 3007,
    "urged": 3008,
    "urse": 3009,
    "ldman": 3010,
    " year": 3011,
    "sequ": 3012,
    " renew": 3013,
    " real": 3014,
    "ics": 3015,
    " lif": 3016,
    " inten": 3017,
    " thunder": 3018,
    " thick": 3019,
    " penet": 3020,
    "anied": 3021,
    " dom": 3022,
    " caused": 3023,
    " claim": 3024,
    "itate": 3025,
    "iting": 3026,
    " five": 3027,
    " fore": 3028,
    " fur": 3029,
    " fly": 3030,
    "enances": 3031,
    "erc": 3032,
    " sides": 3033,
    " ser": 3034,
    " ori": 3035,
    " thee": 3036,
    " mark": 3037,
    " mild": 3038,
    " move": 3039,
    " ma": 3040,
    " wife": 3041,
    " wound": 3042,
    " wre": 3043,
    "inary": 3044,
    " arose": 3045,
    " alive": 3046,
    "uous": 3047,
    "then": 3048,
    "sou": 3049,
    "rained": 3050,
    "pleas": 3051,
    "mur": 3052,
    "ming": 3053,
    "gged": 3054,
    "father": 3055,
    "found": 3056,
    "fi": 3057,
    "ech": 3058,
    "ew": 3059,
    "det": 3060,
    "cked": 3061,
    "can": 3062,
    "cre": 3063,
    "cr": 3064,
    "bar": 3065,
    "aldman": 3066,
    "aly": 3067,
    "_,": 3068,
    "What": 3069,
    "RE": 3070,
    "Felix": 3071,
    "CT": 3072,
    "._": 3073,
    " 3": 3074,
    " maj": 3075,
    " lifeless": 3076,
    "rippa": 3077,
    " dissip": 3078,
    " explanation": 3079,
    "nificent": 3080,
    " apartment": 3081,
    " papers": 3082,
    "alton": 3083,
    " character": 3084,
    "While": 3085,
    "ointment": 3086,
    "interest": 3087,
    " materi": 3088,
    " shadow": 3089,
    "possessed": 3090,
    " single": 3091,
    " fields": 3092,
    "through": 3093,
    " escape": 3094,
    " birth": 3095,
    " accordingly": 3096,
    " situation": 3097,
    " banks": 3098,
    " anxiety": 3099,
    " frequ": 3100,
    " fulfil": 3101,
    " toils": 3102,
    " trium": 3103,
    " burst": 3104,
    " dawn": 3105,
    " elev": 3106,
    " improved": 3107,
    " improve": 3108,
    " warmth": 3109,
    " hiding": 3110,
    " judge": 3111,
    "friends": 3112,
    "grat": 3113,
    " eager": 3114,
    " fallen": 3115,
    " remembrance": 3116,
    " struck": 3117,
    " surprise": 3118,
    " difficulty": 3119,
    " circumstance": 3120,
    " distributing": 3121,
    " prepared": 3122,
    " fatal": 3123,
    " hasten": 3124,
    " violent": 3125,
    " selfish": 3126,
    "ification": 3127,
    " speech": 3128,
    "eyes": 3129,
    " provided": 3130,
    " refuse": 3131,
    " refund": 3132,
    "work": 3133,
    " going": 3134,
    " terrific": 3135,
    " indul": 3136,
    " learn": 3137,
    " bitterness": 3138,
    " marked": 3139,
    " enjoyment": 3140,
    " obscure": 3141,
    " court": 3142,
    " regret": 3143,
    " gentleness": 3144,
    " imagined": 3145,
    " trace": 3146,
    "ultiv": 3147,
    "ecu": 3148,
    "eculi": 3149,
    "formity": 3150,
    " window": 3151,
    " mock": 3152,
    " glac": 3153,
    " glad": 3154,
    "appro": 3155,
    " thrown": 3156,
    " fearful": 3157,
    " surv": 3158,
    " loath": 3159,
    " passage": 3160,
    " passing": 3161,
    " deprived": 3162,
    "rench": 3163,
    "ape": 3164,
    " hoped": 3165,
    " destiny": 3166,
    " returning": 3167,
    " imposs": 3168,
    " fact": 3169,
    " distinct": 3170,
    " distant": 3171,
    " OR": 3172,
    " residence": 3173,
    "remain": 3174,
    "perceived": 3175,
    " accustomed": 3176,
    " miseries": 3177,
    " blo": 3178,
    " living": 3179,
    " liber": 3180,
    "fulness": 3181,
    "ondon": 3182,
    " doing": 3183,
    " rise": 3184,
    " arg": 3185,
    " disg": 3186,
    " Waldman": 3187,
    " With": 3188,
    " design": 3189,
    " apply": 3190,
    "aste": 3191,
    "ortal": 3192,
    " Some": 3193,
    " Sh": 3194,
    " procure": 3195,
    " proper": 3196,
    "umber": 3197,
    "umed": 3198,
    "delight": 3199,
    " sake": 3200,
    " saf": 3201,
    " safety": 3202,
    " All": 3203,
    "earer": 3204,
    "eau": 3205,
    " island": 3206,
    "ulse": 3207,
    "ular": 3208,
    " shone": 3209,
    " var": 3210,
    " exhaust": 3211,
    " surely": 3212,
    " stretched": 3213,
    "life": 3214,
    " conceive": 3215,
    " conject": 3216,
    " ancient": 3217,
    " weather": 3218,
    " asp": 3219,
    " forg": 3220,
    " useless": 3221,
    "iding": 3222,
    " gain": 3223,
    "although": 3224,
    "irmed": 3225,
    "ctions": 3226,
    "iminal": 3227,
    "owd": 3228,
    " whilst": 3229,
    " relieve": 3230,
    " really": 3231,
    " reve": 3232,
    " heav": 3233,
    " heat": 3234,
    "lept": 3235,
    " bef": 3236,
    " hair": 3237,
    "uted": 3238,
    "iced": 3239,
    " lie": 3240,
    " lose": 3241,
    " lect": 3242,
    " nurse": 3243,
    " nerv": 3244,
    " inj": 3245,
    " things": 3246,
    "arily": 3247,
    " peculi": 3248,
    " phys": 3249,
    " pay": 3250,
    "ann": 3251,
    " dwelling": 3252,
    " done": 3253,
    " dra": 3254,
    " together": 3255,
    " collected": 3256,
    "ision": 3257,
    "isit": 3258,
    " hig": 3259,
    " bent": 3260,
    "onoun": 3261,
    "ones": 3262,
    "oused": 3263,
    " simp": 3264,
    " side": 3265,
    " sla": 3266,
    " shed": 3267,
    " master": 3268,
    " mult": 3269,
    " wicked": 3270,
    " www": 3271,
    " wo": 3272,
    "inations": 3273,
    "inted": 3274,
    " aunt": 3275,
    " taking": 3276,
    " ten": 3277,
    " tw": 3278,
    "yet": 3279,
    "wise": 3280,
    "rated": 3281,
    "rad": 3282,
    "rain": 3283,
    "pur": 3284,
    "made": 3285,
    "mine": 3286,
    "min": 3287,
    "lict": 3288,
    "lab": 3289,
    "jo": 3290,
    "iversity": 3291,
    "gone": 3292,
    "gs": 3293,
    "fl": 3294,
    "do": 3295,
    "coun": 3296,
    "cast": 3297,
    "cation": 3298,
    "bition": 3299,
    "bound": 3300,
    "To": 3301,
    "Oh": 3302,
    "ND": 3303,
    "Frankenstein": 3304,
    "Ar": 3305,
    "**": 3306,
    " urged": 3307,
    " 4": 3308,
    "counter": 3309,
    " woe": 3310,
    " simple": 3311,
    "eaufort": 3312,
    " bloom": 3313,
    " triumph": 3314,
    " materials": 3315,
    "determ": 3316,
    " orig": 3317,
    " intense": 3318,
    " govern": 3319,
    " angel": 3320,
    " connected": 3321,
    "quisite": 3322,
    " Who": 3323,
    " Blanc": 3324,
    " Rhine": 3325,
    " minutes": 3326,
    " education": 3327,
    " procured": 3328,
    " princip": 3329,
    " exhibited": 3330,
    " wishes": 3331,
    " harsh": 3332,
    " cease": 3333,
    " shudder": 3334,
    " perpet": 3335,
    "Alas": 3336,
    "occup": 3337,
    "standing": 3338,
    "velop": 3339,
    " perfectly": 3340,
    " walking": 3341,
    " benefit": 3342,
    "Several": 3343,
    " temper": 3344,
    " mentioned": 3345,
    " foot": 3346,
    " grave": 3347,
    " THE": 3348,
    " volunt": 3349,
    " accompanied": 3350,
    " disturbed": 3351,
    " gratitude": 3352,
    " instruments": 3353,
    "discovered": 3354,
    " strongly": 3355,
    "returned": 3356,
    " precipices": 3357,
    " possession": 3358,
    " fortune": 3359,
    " astonishing": 3360,
    " busy": 3361,
    " anxious": 3362,
    " proportion": 3363,
    " descended": 3364,
    "rupted": 3365,
    " speedily": 3366,
    " beside": 3367,
    " freed": 3368,
    " fulfilled": 3369,
    " effects": 3370,
    " hellish": 3371,
    " exertion": 3372,
    "positions": 3373,
    " benevolence": 3374,
    " daily": 3375,
    " eBooks": 3376,
    " experience": 3377,
    " sentence": 3378,
    " attempted": 3379,
    " madness": 3380,
    " convinced": 3381,
    " convict": 3382,
    " servant": 3383,
    " obtained": 3384,
    "express": 3385,
    " philosopher": 3386,
    " virtues": 3387,
    " persuaded": 3388,
    " persuade": 3389,
    " travel": 3390,
    " summit": 3391,
    " rank": 3392,
    "peci": 3393,
    " waited": 3394,
    " wander": 3395,
    "knowledge": 3396,
    " sorrowful": 3397,
    " refuge": 3398,
    " enemies": 3399,
    " required": 3400,
    " terrible": 3401,
    " lively": 3402,
    " Agrippa": 3403,
    "avour": 3404,
    " intell": 3405,
    " intro": 3406,
    " added": 3407,
    " sincerely": 3408,
    "oubled": 3409,
    " lead": 3410,
    " second": 3411,
    " create": 3412,
    " younger": 3413,
    " resolution": 3414,
    "ributed": 3415,
    " copies": 3416,
    " endeavouring": 3417,
    " wondrous": 3418,
    "ivid": 3419,
    " news": 3420,
    " winds": 3421,
    " accept": 3422,
    " crowd": 3423,
    " criminal": 3424,
    " glory": 3425,
    " cheeks": 3426,
    " despond": 3427,
    "blime": 3428,
    "bles": 3429,
    "versary": 3430,
    "itional": 3431,
    " senses": 3432,
    " emotions": 3433,
    " continue": 3434,
    " strang": 3435,
    " confined": 3436,
    " guest": 3437,
    " located": 3438,
    " lover": 3439,
    "upon": 3440,
    " fix": 3441,
    " looks": 3442,
    " loose": 3443,
    " instru": 3444,
    " commenced": 3445,
    "rences": 3446,
    " partly": 3447,
    " ears": 3448,
    " using": 3449,
    "clusion": 3450,
    " seeing": 3451,
    "ignant": 3452,
    " Italy": 3453,
    " impati": 3454,
    " impress": 3455,
    " road": 3456,
    " raised": 3457,
    " presently": 3458,
    " failed": 3459,
    " countenances": 3460,
    " prec": 3461,
    " London": 3462,
    " Le": 3463,
    " Of": 3464,
    "ference": 3465,
    " result": 3466,
    "placed": 3467,
    "pless": 3468,
    " adversary": 3469,
    " overcame": 3470,
    "erving": 3471,
    " accused": 3472,
    " content": 3473,
    " quant": 3474,
    " quantity": 3475,
    " thank": 3476,
    "being": 3477,
    "—.": 3478,
    "suff": 3479,
    "such": 3480,
    " Per": 3481,
    "often": 3482,
    " performed": 3483,
    "ighed": 3484,
    "\n\n\n": 3485,
    "lap": 3486,
    "lapsed": 3487,
    " encounter": 3488,
    " env": 3489,
    " Every": 3490,
    " neither": 3491,
    " agitated": 3492,
    " ago": 3493,
    " desolate": 3494,
    "osite": 3495,
    "osing": 3496,
    " appears": 3497,
    " appar": 3498,
    " appre": 3499,
    " amuse": 3500,
    "asting": 3501,
    "orther": 3502,
    " comfort": 3503,
    " Such": 3504,
    " Mor": 3505,
    " Moritz": 3506,
    "ively": 3507,
    "uses": 3508,
    " prove": 3509,
    " uncle": 3510,
    "umult": 3511,
    "ume": 3512,
    " safe": 3513,
    " An": 3514,
    "racted": 3515,
    "emb": 3516,
    "earth": 3517,
    "eaven": 3518,
    " soft": 3519,
    "alled": 3520,
    "ulous": 3521,
    " ship": 3522,
    " showed": 3523,
    " vent": 3524,
    " exerc": 3525,
    " sublime": 3526,
    " feat": 3527,
    " features": 3528,
    "chool": 3529,
    "chief": 3530,
    "child": 3531,
    "ify": 3532,
    "ift": 3533,
    " straw": 3534,
    " consequ": 3535,
    " console": 3536,
    " week": 3537,
    " deformity": 3538,
    " deck": 3539,
    " deed": 3540,
    " def": 3541,
    " usu": 3542,
    "etter": 3543,
    " gay": 3544,
    "alf": 3545,
    " meantime": 3546,
    " whis": 3547,
    "search": 3548,
    "entered": 3549,
    " receive": 3550,
    " held": 3551,
    "stud": 3552,
    " bey": 3553,
    " beyond": 3554,
    " elapsed": 3555,
    " effort": 3556,
    " large": 3557,
    " loud": 3558,
    " lam": 3559,
    " low": 3560,
    "oms": 3561,
    " nearer": 3562,
    " including": 3563,
    " inex": 3564,
    " insp": 3565,
    " incl": 3566,
    " portion": 3567,
    " pract": 3568,
    " post": 3569,
    "oratory": 3570,
    " den": 3571,
    " der": 3572,
    "esides": 3573,
    "ester": 3574,
    " cultiv": 3575,
    " collect": 3576,
    "ism": 3577,
    " hanging": 3578,
    " hung": 3579,
    " harm": 3580,
    " fil": 3581,
    " fing": 3582,
    " both": 3583,
    " boy": 3584,
    " bare": 3585,
    " bore": 3586,
    "ening": 3587,
    "atus": 3588,
    "athe": 3589,
    "erted": 3590,
    "erate": 3591,
    " slept": 3592,
    "rene": 3593,
    "inction": 3594,
    "ining": 3595,
    "hend": 3596,
    " tell": 3597,
    " tempt": 3598,
    " ty": 3599,
    " ta": 3600,
    " tax": 3601,
    "warm": 3602,
    "wat": 3603,
    "wa": 3604,
    "ude": 3605,
    "time": 3606,
    "sus": 3607,
    "sac": 3608,
    "sm": 3609,
    "rink": 3610,
    "obs": 3611,
    "ock": 3612,
    "must": 3613,
    "mate": 3614,
    "may": 3615,
    "iated": 3616,
    "iver": 3617,
    "ia": 3618,
    "house": 3619,
    "him": 3620,
    "has": 3621,
    "gment": 3622,
    "gu": 3623,
    "foll": 3624,
    "electronic": 3625,
    "even": 3626,
    "eed": 3627,
    "dark": 3628,
    "ding": 3629,
    "clock": 3630,
    "certain": 3631,
    "cot": 3632,
    "cing": 3633,
    "bout": 3634,
    "bod": 3635,
    "best": 3636,
    "bly": 3637,
    "affect": 3638,
    "Your": 3639,
    "UT": 3640,
    "Such": 3641,
    "SE": 3642,
    "RO": 3643,
    "One": 3644,
    "On": 3645,
    "OU": 3646,
    "NT": 3647,
    "If": 3648,
    "IS": 3649,
    "After": 3650,
    "At": 3651,
    "AR": 3652,
    "?’": 3653,
    " er": 3654,
    "orthern": 3655,
    " Legh": 3656,
    " Leghorn": 3657,
    " conviction": 3658,
    " wickedness": 3659,
    " multitude": 3660,
    " exhausted": 3661,
    " disgust": 3662,
    " arguments": 3663,
    " impossible": 3664,
    " survive": 3665,
    " elevated": 3666,
    " dissipate": 3667,
    " majestic": 3668,
    "pleasure": 3669,
    " application": 3670,
    " preceding": 3671,
    "manner": 3672,
    " Jur": 3673,
    " music": 3674,
    " frost": 3675,
    " hurried": 3676,
    " peasants": 3677,
    " sustain": 3678,
    "ortunity": 3679,
    " neighbour": 3680,
    " neighbourhood": 3681,
    " arranging": 3682,
    " contemplated": 3683,
    "reflect": 3684,
    "sembl": 3685,
    " welcome": 3686,
    " alteration": 3687,
    " question": 3688,
    "justice": 3689,
    "undred": 3690,
    " medium": 3691,
    "orneli": 3692,
    "ornelius": 3693,
    " pretty": 3694,
    " succeeded": 3695,
    " succeed": 3696,
    " suspic": 3697,
    " immediately": 3698,
    " immediate": 3699,
    " beginning": 3700,
    " communicated": 3701,
    "creatures": 3702,
    "promise": 3703,
    " temp": 3704,
    " finished": 3705,
    " accompany": 3706,
    " instrument": 3707,
    " merchant": 3708,
    " joined": 3709,
    " join": 3710,
    " fortunate": 3711,
    " travelled": 3712,
    " concealed": 3713,
    " malignity": 3714,
    " malice": 3715,
    " delay": 3716,
    " professor": 3717,
    "destroy": 3718,
    "prev": 3719,
    " avoid": 3720,
    " besides": 3721,
    "stantly": 3722,
    " prevent": 3723,
    " doubtless": 3724,
    " entreated": 3725,
    " written": 3726,
    " writing": 3727,
    " dangerous": 3728,
    "ugust": 3729,
    " mistaken": 3730,
    " swear": 3731,
    " general": 3732,
    "thoughts": 3733,
    " absent": 3734,
    " described": 3735,
    " satisfy": 3736,
    " agreed": 3737,
    " minute": 3738,
    " animal": 3739,
    " abhorrence": 3740,
    " employment": 3741,
    " determination": 3742,
    " summer": 3743,
    " favourable": 3744,
    " hastened": 3745,
    " lessons": 3746,
    " streets": 3747,
    " violently": 3748,
    " discoveries": 3749,
    " oppress": 3750,
    " board": 3751,
    " answered": 3752,
    " played": 3753,
    " tremendous": 3754,
    " rude": 3755,
    " direction": 3756,
    " require": 3757,
    " request": 3758,
    " expressive": 3759,
    " landed": 3760,
    " advant": 3761,
    "ibility": 3762,
    "unted": 3763,
    " careless": 3764,
    " bounds": 3765,
    " intim": 3766,
    " entering": 3767,
    " lean": 3768,
    "izon": 3769,
    " crept": 3770,
    " laboratory": 3771,
    " condition": 3772,
    " interval": 3773,
    " leag": 3774,
    " utmost": 3775,
    " transp": 3776,
    " cursed": 3777,
    " hardship": 3778,
    " affectionate": 3779,
    " incidents": 3780,
    " supposed": 3781,
    " suppose": 3782,
    " endeavours": 3783,
    "denly": 3784,
    " arrival": 3785,
    "comm": 3786,
    "withstanding": 3787,
    " cheek": 3788,
    "appear": 3789,
    " affections": 3790,
    " pleased": 3791,
    " format": 3792,
    " confirmed": 3793,
    " confessed": 3794,
    " guide": 3795,
    " guard": 3796,
    " depend": 3797,
    " command": 3798,
    "exc": 3799,
    " recess": 3800,
    "ancing": 3801,
    " pronoun": 3802,
    " rested": 3803,
    " replace": 3804,
    " impressed": 3805,
    " race": 3806,
    " grand": 3807,
    " knows": 3808,
    " happened": 3809,
    "angs": 3810,
    " YOU": 3811,
    " Your": 3812,
    " otherwise": 3813,
    "soon": 3814,
    " accident": 3815,
    " friendship": 3816,
    " qualities": 3817,
    " blasted": 3818,
    " blessed": 3819,
    "beg": 3820,
    "oded": 3821,
    " anything": 3822,
    "aunt": 3823,
    " Cornelius": 3824,
    " Could": 3825,
    " lives": 3826,
    "suing": 3827,
    " compre": 3828,
    "ksome": 3829,
    "uddenly": 3830,
    " PRO": 3831,
    "iece": 3832,
    " removed": 3833,
    " From": 3834,
    " perceive": 3835,
    " perish": 3836,
    "igantic": 3837,
    " dogs": 3838,
    " rising": 3839,
    " enchant": 3840,
    " Beaufort": 3841,
    " Bel": 3842,
    " arise": 3843,
    "ptember": 3844,
    " agon": 3845,
    " disp": 3846,
    "osition": 3847,
    "osen": 3848,
    "osp": 3849,
    " amidst": 3850,
    " chamber": 3851,
    " chair": 3852,
    "agers": 3853,
    " comb": 3854,
    " Soon": 3855,
    " produce": 3856,
    " prolong": 3857,
    " proof": 3858,
    " proved": 3859,
    " Heaven": 3860,
    " unknown": 3861,
    " united": 3862,
    "depart": 3863,
    "dep": 3864,
    " worked": 3865,
    " saved": 3866,
    " spend": 3867,
    " altered": 3868,
    " aloud": 3869,
    "raced": 3870,
    "emember": 3871,
    "emed": 3872,
    "qual": 3873,
    "resently": 3874,
    " solic": 3875,
    "alling": 3876,
    "alls": 3877,
    " serene": 3878,
    " search": 3879,
    " seld": 3880,
    " seldom": 3881,
    "ulate": 3882,
    "ulation": 3883,
    " shri": 3884,
    " vice": 3885,
    "ilk": 3886,
    " That": 3887,
    " fem": 3888,
    "iff": 3889,
    " started": 3890,
    " stature": 3891,
    " stand": 3892,
    "ters": 3893,
    " ant": 3894,
    "adually": 3895,
    " weighed": 3896,
    " weeks": 3897,
    " wealth": 3898,
    " weight": 3899,
    " notice": 3900,
    "rob": 3901,
    "redit": 3902,
    " gest": 3903,
    " gen": 3904,
    "irium": 3905,
    "iring": 3906,
    "iments": 3907,
    "image": 3908,
    "urmount": 3909,
    " merely": 3910,
    " meas": 3911,
    " yield": 3912,
    "otent": 3913,
    "oting": 3914,
    "enty": 3915,
    "vere": 3916,
    " reached": 3917,
    " reach": 3918,
    " rever": 3919,
    "stas": 3920,
    "stasy": 3921,
    "lete": 3922,
    " behind": 3923,
    " bear": 3924,
    " beat": 3925,
    "ically": 3926,
    "icated": 3927,
    " either": 3928,
    " lau": 3929,
    " lest": 3930,
    " lot": 3931,
    " lin": 3932,
    " lu": 3933,
    " lux": 3934,
    "omen": 3935,
    " myster": 3936,
    " induced": 3937,
    " incon": 3938,
    " thin": 3939,
    " pati": 3940,
    " pale": 3941,
    " port": 3942,
    " pri": 3943,
    " pal": 3944,
    "ashes": 3945,
    "ashed": 3946,
    " dress": 3947,
    " dry": 3948,
    " date": 3949,
    " dim": 3950,
    " ded": 3951,
    "especi": 3952,
    " closed": 3953,
    " case": 3954,
    " cru": 3955,
    " cust": 3956,
    " cra": 3957,
    " cat": 3958,
    " hired": 3959,
    " hated": 3960,
    " faces": 3961,
    " fury": 3962,
    " fainted": 3963,
    " ferv": 3964,
    " fit": 3965,
    " borne": 3966,
    " base": 3967,
    " ble": 3968,
    " ber": 3969,
    " berries": 3970,
    " bu": 3971,
    "oned": 3972,
    "atig": 3973,
    "eral": 3974,
    " sink": 3975,
    " sir": 3976,
    " sim": 3977,
    " ow": 3978,
    " miles": 3979,
    " mir": 3980,
    " mi": 3981,
    " wid": 3982,
    " wet": 3983,
    " aug": 3984,
    " aut": 3985,
    "heaven": 3986,
    " tumult": 3987,
    " tou": 3988,
    " te": 3989,
    " teeth": 3990,
    "ê": 3991,
    "zen": 3992,
    "wretched": 3993,
    "wild": 3994,
    "various": 3995,
    "trem": 3996,
    "ts": 3997,
    "sleep": 3998,
    "sens": 3999,
    "sla": 4000,
    "sol": 4001,
    "sil": 4002,
    "sat": 4003,
    "rase": 4004,
    "rit": 4005,
    "pain": 4006,
    "ode": 4007,
    "opp": 4008,
    "oc": 4009,
    "mits": 4010,
    "mind": 4011,
    "mad": 4012,
    "mar": 4013,
    "men": 4014,
    "mat": 4015,
    "liness": 4016,
    "lain": 4017,
    "lim": 4018,
    "low": 4019,
    "journey": 4020,
    "jure": 4021,
    "ius": 4022,
    "iant": 4023,
    "ience": 4024,
    "half": 4025,
    "human": 4026,
    "horr": 4027,
    "hard": 4028,
    "gener": 4029,
    "gence": 4030,
    "felt": 4031,
    "free": 4032,
    "fast": 4033,
    "eers": 4034,
    "del": 4035,
    "dam": 4036,
    "did": 4037,
    "cause": 4038,
    "cond": 4039,
    "bo": 4040,
    "aid": 4041,
    "Why": 4042,
    "That": 4043,
    "Nothing": 4044,
    "IN": 4045,
    "From": 4046,
    "For": 4047,
    "ES": 4048,
    "ED": 4049,
    ",’": 4050,
    " especi": 4051,
    " est": 4052,
    " 5": 4053,
    " este": 4054,
    "horror": 4055,
    "satisf": 4056,
    " bleak": 4057,
    " laugh": 4058,
    "urmountable": 4059,
    " genius": 4060,
    " female": 4061,
    " comprehend": 4062,
    " Jura": 4063,
    "affection": 4064,
    "cotland": 4065,
    "sacrif": 4066,
    "sacrifice": 4067,
    "athered": 4068,
    " fingers": 4069,
    " filthy": 4070,
    " harmless": 4071,
    " lament": 4072,
    " usual": 4073,
    " exercise": 4074,
    " apprehen": 4075,
    " apparition": 4076,
    " envir": 4077,
    " environs": 4078,
    " intellect": 4079,
    "veloped": 4080,
    "determined": 4081,
    "pursu": 4082,
    " twenty": 4083,
    " higher": 4084,
    " physical": 4085,
    " peculiarly": 4086,
    " nervous": 4087,
    " lecture": 4088,
    " aspect": 4089,
    " conjectured": 4090,
    " property": 4091,
    " Shall": 4092,
    " liberty": 4093,
    " facts": 4094,
    " glacier": 4095,
    " mockery": 4096,
    "gratitude": 4097,
    " improvement": 4098,
    " frequently": 4099,
    "fiend": 4100,
    "soul": 4101,
    " wreck": 4102,
    " series": 4103,
    " forest": 4104,
    " penetrate": 4105,
    " renewed": 4106,
    " deliverer": 4107,
    " soothed": 4108,
    "ungeon": 4109,
    " neglected": 4110,
    " contrast": 4111,
    "fellow": 4112,
    "continually": 4113,
    " struggled": 4114,
    " mournful": 4115,
    " green": 4116,
    "changel": 4117,
    " vanished": 4118,
    "ulses": 4119,
    " overwhelmed": 4120,
    " chemical": 4121,
    " chemist": 4122,
    " breakfast": 4123,
    " motionless": 4124,
    " signs": 4125,
    "structed": 4126,
    " welcom": 4127,
    " welcomed": 4128,
    " questions": 4129,
    "parall": 4130,
    "parallel": 4131,
    "paralleled": 4132,
    " mutual": 4133,
    " drops": 4134,
    " innum": 4135,
    " innumerable": 4136,
    " conveyed": 4137,
    "therefore": 4138,
    "September": 4139,
    "cheer": 4140,
    " steep": 4141,
    " explained": 4142,
    " Cham": 4143,
    " Chamoun": 4144,
    " Chamounix": 4145,
    " disturb": 4146,
    " embraced": 4147,
    " listening": 4148,
    " obtaining": 4149,
    " escaped": 4150,
    "luence": 4151,
    " tenderly": 4152,
    " tender": 4153,
    " birds": 4154,
    " habitation": 4155,
    " habit": 4156,
    " helpless": 4157,
    " declined": 4158,
    "support": 4159,
    " consumm": 4160,
    " guiltless": 4161,
    " traveller": 4162,
    " situated": 4163,
    " coff": 4164,
    " coffin": 4165,
    " threatened": 4166,
    " delayed": 4167,
    " execution": 4168,
    " regarded": 4169,
    " professors": 4170,
    "ENT": 4171,
    "destruction": 4172,
    " talked": 4173,
    " avail": 4174,
    " inquired": 4175,
    " examined": 4176,
    " exertions": 4177,
    " deserts": 4178,
    " immense": 4179,
    " Before": 4180,
    " previous": 4181,
    " occurred": 4182,
    "brought": 4183,
    "ogn": 4184,
    " element": 4185,
    " equal": 4186,
    " secrets": 4187,
    "distinguished": 4188,
    " sickness": 4189,
    "ashion": 4190,
    " meeting": 4191,
    " generous": 4192,
    " shores": 4193,
    " disappointment": 4194,
    " absence": 4195,
    "mnip": 4196,
    " servants": 4197,
    " barbar": 4198,
    " barri": 4199,
    " capt": 4200,
    " dearer": 4201,
    " supported": 4202,
    " consideration": 4203,
    " rivers": 4204,
    " broke": 4205,
    " certainty": 4206,
    " hearing": 4207,
    " animated": 4208,
    " complex": 4209,
    " complet": 4210,
    " tortures": 4211,
    " subjects": 4212,
    " 20": 4213,
    " irres": 4214,
    " magnificent": 4215,
    " horizon": 4216,
    " dangers": 4217,
    " Alps": 4218,
    " distribution": 4219,
    " distribute": 4220,
    " prepare": 4221,
    " tranquil": 4222,
    " rang": 4223,
    " snowy": 4224,
    " hastily": 4225,
    " viewed": 4226,
    "consid": 4227,
    " opposite": 4228,
    " oppressed": 4229,
    " engage": 4230,
    " inhabited": 4231,
    " fortitude": 4232,
    "willing": 4233,
    " truly": 4234,
    " decided": 4235,
    " deadly": 4236,
    " remainder": 4237,
    " cottages": 4238,
    "words": 4239,
    " trembling": 4240,
    " tremble": 4241,
    " sights": 4242,
    " finding": 4243,
    " profound": 4244,
    " indignation": 4245,
    " gives": 4246,
    "contro": 4247,
    "descri": 4248,
    "yourself": 4249,
    " protected": 4250,
    "cessity": 4251,
    " intended": 4252,
    " address": 4253,
    " sympathised": 4254,
    "licted": 4255,
    " placid": 4256,
    " fiendish": 4257,
    " peaceful": 4258,
    " infant": 4259,
    " infin": 4260,
    " leis": 4261,
    " leisure": 4262,
    "icial": 4263,
    " assumed": 4264,
    "misery": 4265,
    " opin": 4266,
    " delighted": 4267,
    " occupation": 4268,
    " interrupted": 4269,
    " regions": 4270,
    " deeper": 4271,
    " turning": 4272,
    " powerful": 4273,
    " south": 4274,
    " flowers": 4275,
    " torn": 4276,
    " detested": 4277,
    " detest": 4278,
    " incident": 4279,
    " company": 4280,
    " joys": 4281,
    " windows": 4282,
    " mode": 4283,
    " destroyer": 4284,
    " horrors": 4285,
    " horrid": 4286,
    " lighted": 4287,
    " troubled": 4288,
    " trust": 4289,
    " train": 4290,
    " glorious": 4291,
    " extinguish": 4292,
    " extinguished": 4293,
    " extent": 4294,
    "duction": 4295,
    " visible": 4296,
    "appeared": 4297,
    "many": 4298,
    " sensit": 4299,
    " continual": 4300,
    " Nature": 4301,
    " NO": 4302,
    " formerly": 4303,
    " confirm": 4304,
    " humanity": 4305,
    " common": 4306,
    "achment": 4307,
    "shine": 4308,
    " parts": 4309,
    "exting": 4310,
    "expl": 4311,
    " recur": 4312,
    " recom": 4313,
    " recomm": 4314,
    "teen": 4315,
    "apable": 4316,
    "anche": 4317,
    " pride": 4318,
    "clam": 4319,
    " restless": 4320,
    " clos": 4321,
    " destined": 4322,
    " everl": 4323,
    " everlasting": 4324,
    " impulse": 4325,
    " raise": 4326,
    " grass": 4327,
    " poison": 4328,
    " prejud": 4329,
    " distinguish": 4330,
    " creating": 4331,
    "They": 4332,
    "loqu": 4333,
    " Our": 4334,
    " Ox": 4335,
    " Oxfor": 4336,
    " Oxford": 4337,
    " plans": 4338,
    " conscious": 4339,
    " consented": 4340,
    " conscience": 4341,
    " attract": 4342,
    " attended": 4343,
    " attached": 4344,
    " reserved": 4345,
    "places": 4346,
    "perfect": 4347,
    "persed": 4348,
    " accum": 4349,
    " accom": 4350,
    " accompl": 4351,
    " quiet": 4352,
    "forth": 4353,
    "behind": 4354,
    "behold": 4355,
    " aband": 4356,
    " compos": 4357,
    " exped": 4358,
    "uded": 4359,
    "irer": 4360,
    "cible": 4361,
    " French": 4362,
    " France": 4363,
    " Gree": 4364,
    " permitted": 4365,
    " perceiving": 4366,
    " permit": 4367,
    "law": 4368,
    " doomed": 4369,
    " roused": 4370,
    " rash": 4371,
    " rad": 4372,
    " encour": 4373,
    " enab": 4374,
    " enabled": 4375,
    "urned": 4376,
    " imb": 4377,
    " dispositions": 4378,
    " disaster": 4379,
    " Walton": 4380,
    " Wer": 4381,
    " Werter": 4382,
    " desires": 4383,
    " desolation": 4384,
    " appalling": 4385,
    " applied": 4386,
    " kne": 4387,
    " kis": 4388,
    " kissed": 4389,
    " kn": 4390,
    " knelt": 4391,
    " chosen": 4392,
    " chance": 4393,
    " chim": 4394,
    "astic": 4395,
    " Se": 4396,
    " Man": 4397,
    "using": 4398,
    "olution": 4399,
    "ols": 4400,
    " university": 4401,
    " unlike": 4402,
    " uneas": 4403,
    " unless": 4404,
    "ustri": 4405,
    "umin": 4406,
    "umn": 4407,
    "deep": 4408,
    "dev": 4409,
    " worthy": 4410,
    " worth": 4411,
    " worm": 4412,
    " save": 4413,
    "elest": 4414,
    "elestial": 4415,
    " Ah": 4416,
    "access": 4417,
    "acle": 4418,
    " spared": 4419,
    " spark": 4420,
    " spect": 4421,
    " alarmed": 4422,
    " alarm": 4423,
    "race": 4424,
    "reatment": 4425,
    "eaut": 4426,
    "indeed": 4427,
    "quest": 4428,
    "que": 4429,
    "ardon": 4430,
    " severe": 4431,
    " seas": 4432,
    "ularly": 4433,
    " shape": 4434,
    " shattered": 4435,
    "ilar": 4436,
    "ilt": 4437,
    " exquisite": 4438,
    " exceed": 4439,
    " exile": 4440,
    " Thus": 4441,
    "ching": 4442,
    "chan": 4443,
    " states": 4444,
    " star": 4445,
    "liance": 4446,
    "lig": 4447,
    " conception": 4448,
    " anger": 4449,
    "pping": 4450,
    "thousand": 4451,
    "thod": 4452,
    "thus": 4453,
    "adise": 4454,
    "adv": 4455,
    "add": 4456,
    "ays": 4457,
    " notwithstanding": 4458,
    " defect": 4459,
    " deb": 4460,
    "riven": 4461,
    " force": 4462,
    " forb": 4463,
    " used": 4464,
    " ug": 4465,
    "idnight": 4466,
    "road": 4467,
    " gates": 4468,
    " grew": 4469,
    " gn": 4470,
    "already": 4471,
    "iries": 4472,
    "vert": 4473,
    "imag": 4474,
    "urbed": 4475,
    " method": 4476,
    " whither": 4477,
    "otives": 4478,
    "othes": 4479,
    "ots": 4480,
    "see": 4481,
    "entions": 4482,
    " receiving": 4483,
    " reward": 4484,
    " hes": 4485,
    "stran": 4486,
    " below": 4487,
    " beach": 4488,
    " haunted": 4489,
    "icip": 4490,
    " eloqu": 4491,
    " eat": 4492,
    " el": 4493,
    " ec": 4494,
    " ecstasy": 4495,
    " lakes": 4496,
    " late": 4497,
    "inged": 4498,
    "arling": 4499,
    "arse": 4500,
    " pains": 4501,
    " pist": 4502,
    "ashing": 4503,
    "orable": 4504,
    " driven": 4505,
    " darted": 4506,
    " dam": 4507,
    "esp": 4508,
    " celestial": 4509,
    " credit": 4510,
    " coward": 4511,
    " coll": 4512,
    " cost": 4513,
    " col": 4514,
    " cut": 4515,
    " hundred": 4516,
    " hut": 4517,
    " Is": 4518,
    " flo": 4519,
    " fine": 4520,
    " fac": 4521,
    " four": 4522,
    " fill": 4523,
    " book": 4524,
    " bra": 4525,
    "ouble": 4526,
    "edding": 4527,
    " school": 4528,
    " source": 4529,
    " swell": 4530,
    " milk": 4531,
    " mortal": 4532,
    " making": 4533,
    " main": 4534,
    " warmed": 4535,
    " wide": 4536,
    " wra": 4537,
    "inqu": 4538,
    "ince": 4539,
    " taught": 4540,
    " tree": 4541,
    " ties": 4542,
    "zed": 4543,
    "zy": 4544,
    "za": 4545,
    "wond": 4546,
    "wind": 4547,
    "uct": 4548,
    "sweet": 4549,
    "science": 4550,
    "saw": 4551,
    "sometimes": 4552,
    "sum": 4553,
    "rist": 4554,
    "ric": 4555,
    "passed": 4556,
    "pret": 4557,
    "post": 4558,
    "ple": 4559,
    "ob": 4560,
    "master": 4561,
    "mag": 4562,
    "mist": 4563,
    "look": 4564,
    "little": 4565,
    "line": 4566,
    "love": 4567,
    "list": 4568,
    "iven": 4569,
    "hop": 4570,
    "good": 4571,
    "gent": 4572,
    "fatig": 4573,
    "favour": 4574,
    "first": 4575,
    "erest": 4576,
    "dream": 4577,
    "dom": 4578,
    "cold": 4579,
    "cks": 4580,
    "ca": 4581,
    "benevol": 4582,
    "bene": 4583,
    "action": 4584,
    "aving": 4585,
    "William": 4586,
    "TH": 4587,
    "Section": 4588,
    "Soon": 4589,
    "St": 4590,
    "OR": 4591,
    "LI": 4592,
    "Geneva": 4593,
    "Farewell": 4594,
    "Every": 4595,
    "EM": 4596,
    "By": 4597,
    ",_": 4598,
    "),": 4599,
    "!’": 4600,
    " rom": 4601,
    " ver": 4602,
    " 9": 4603,
    " 7": 4604,
    " 6": 4605,
    "\n ": 4606,
    " verd": 4607,
    " romantic": 4608,
    "benef": 4609,
    "benevolent": 4610,
    "dreams": 4611,
    "iveness": 4612,
    "ristian": 4613,
    " colle": 4614,
    " cowardice": 4615,
    " eloquence": 4616,
    " hesitated": 4617,
    "imagination": 4618,
    " forbid": 4619,
    "accessible": 4620,
    " imbued": 4621,
    " composure": 4622,
    " infinite": 4623,
    " completion": 4624,
    " captain": 4625,
    " barrier": 4626,
    " barbarous": 4627,
    " consummation": 4628,
    " tenderness": 4629,
    " chemistry": 4630,
    " especially": 4631,
    "boat": 4632,
    "delirium": 4633,
    "hardly": 4634,
    "slave": 4635,
    "wildered": 4636,
    "wretchedness": 4637,
    "êve": 4638,
    " touched": 4639,
    " augment": 4640,
    " mixt": 4641,
    " mixture": 4642,
    " simpl": 4643,
    " custom": 4644,
    " cruel": 4645,
    " palp": 4646,
    "qualid": 4647,
    "departure": 4648,
    " PROJ": 4649,
    " PROJE": 4650,
    " PROJECT": 4651,
    " pronounced": 4652,
    "appearance": 4653,
    " hardships": 4654,
    " transported": 4655,
    " leaning": 4656,
    " advantage": 4657,
    " requirements": 4658,
    " suspicion": 4659,
    " err": 4660,
    "ARRA": 4661,
    "ARRANT": 4662,
    "UTEN": 4663,
    "UTENB": 4664,
    "UTENBER": 4665,
    "UTENBERG": 4666,
    "bestowed": 4667,
    "body": 4668,
    "followed": 4669,
    " tempted": 4670,
    "esterday": 4671,
    " inspire": 4672,
    " whisp": 4673,
    " whispered": 4674,
    " consequences": 4675,
    "iftness": 4676,
    " amusement": 4677,
    " Often": 4678,
    " strangers": 4679,
    "ividual": 4680,
    " philosophers": 4681,
    " volunteers": 4682,
    " origin": 4683,
    " blooming": 4684,
    "***": 4685,
    "labours": 4686,
    " masters": 4687,
    " befitting": 4688,
    " befall": 4689,
    " heavy": 4690,
    " reverence": 4691,
    " forgot": 4692,
    " variety": 4693,
    " islands": 4694,
    " loathsome": 4695,
    " loathing": 4696,
    "approached": 4697,
    "approach": 4698,
    " selfishness": 4699,
    " eagerness": 4700,
    " dawned": 4701,
    "crimes": 4702,
    "ewel": 4703,
    "south": 4704,
    " domestic": 4705,
    " groans": 4706,
    " groan": 4707,
    " ascended": 4708,
    " delivered": 4709,
    " soothe": 4710,
    "against": 4711,
    " chiefly": 4712,
    " displaying": 4713,
    " rambles": 4714,
    " contrary": 4715,
    " attentions": 4716,
    " plainly": 4717,
    " earnestly": 4718,
    " particularly": 4719,
    " struggle": 4720,
    "ITY": 4721,
    " peasant": 4722,
    " belonging": 4723,
    " belonged": 4724,
    " heroes": 4725,
    " vanish": 4726,
    "ulsive": 4727,
    "endeavoured": 4728,
    "spirits": 4729,
    " veins": 4730,
    "person": 4731,
    "persu": 4732,
    "regard": 4733,
    " breathed": 4734,
    " breath": 4735,
    " stole": 4736,
    " shuddered": 4737,
    " agreeable": 4738,
    " Letter": 4739,
    " tormented": 4740,
    "Who": 4741,
    "afford": 4742,
    "however": 4743,
    "intell": 4744,
    " drawing": 4745,
    " suspense": 4746,
    " probably": 4747,
    " probable": 4748,
    " blessing": 4749,
    "greatest": 4750,
    "promised": 4751,
    "animate": 4752,
    "letter": 4753,
    " assuredly": 4754,
    " volume": 4755,
    " transit": 4756,
    " transitory": 4757,
    "discover": 4758,
    " ignorance": 4759,
    " holder": 4760,
    " habits": 4761,
    " feverish": 4762,
    "supposed": 4763,
    " grasped": 4764,
    " gazing": 4765,
    "despond": 4766,
    " astonishment": 4767,
    "natched": 4768,
    " sadness": 4769,
    " banished": 4770,
    " branch": 4771,
    " threats": 4772,
    " narrative": 4773,
    " narration": 4774,
    " weeping": 4775,
    "ournal": 4776,
    " unfold": 4777,
    " Mrs": 4778,
    " Parace": 4779,
    " Paracel": 4780,
    " Paracelsus": 4781,
    "ruption": 4782,
    " solemnity": 4783,
    " kept": 4784,
    " talk": 4785,
    " castles": 4786,
    " demanded": 4787,
    " examine": 4788,
    " voyages": 4789,
    " Begone": 4790,
    " respite": 4791,
    " attending": 4792,
    "brother": 4793,
    " burden": 4794,
    " equally": 4795,
    " vainly": 4796,
    " entreaties": 4797,
    " Once": 4798,
    " ignom": 4799,
    " ignominy": 4800,
    "distribut": 4801,
    "zeal": 4802,
    " swiftness": 4803,
    " sentiments": 4804,
    " sickened": 4805,
    " paper": 4806,
    "uthors": 4807,
    " revolved": 4808,
    " revive": 4809,
    " generally": 4810,
    " judges": 4811,
    " clouded": 4812,
    " conducted": 4813,
    " understanding": 4814,
    " extremely": 4815,
    "grimage": 4816,
    " insurmountable": 4817,
    "ellow": 4818,
    "meric": 4819,
    "prov": 4820,
    " service": 4821,
    " barred": 4822,
    " cares": 4823,
    " carry": 4824,
    "utely": 4825,
    "expressed": 4826,
    " parched": 4827,
    " animals": 4828,
    " animation": 4829,
    " struct": 4830,
    " structure": 4831,
    " virtuous": 4832,
    " seize": 4833,
    " diffic": 4834,
    " difficult": 4835,
    " irksome": 4836,
    " irrep": 4837,
    " renders": 4838,
    " summits": 4839,
    " admire": 4840,
    " distributed": 4841,
    " preparing": 4842,
    " prepar": 4843,
    " difference": 4844,
    " interesting": 4845,
    " interested": 4846,
    "kindness": 4847,
    " wait": 4848,
    " moderate": 4849,
    " opportunity": 4850,
    " phrase": 4851,
    "compassed": 4852,
    " protection": 4853,
    " dreaded": 4854,
    " paths": 4855,
    " languages": 4856,
    " fortnight": 4857,
    "ployed": 4858,
    " evils": 4859,
    "valanche": 4860,
    "repent": 4861,
    " setting": 4862,
    "ontory": 4863,
    " decide": 4864,
    " decay": 4865,
    " remaining": 4866,
    " brothers": 4867,
    " actions": 4868,
    "ounce": 4869,
    " towns": 4870,
    " requires": 4871,
    "ciple": 4872,
    " suffering": 4873,
    "attended": 4874,
    "attempt": 4875,
    " individual": 4876,
    " indic": 4877,
    " giving": 4878,
    "contempl": 4879,
    "bsite": 4880,
    " walks": 4881,
    " goodness": 4882,
    "rossed": 4883,
    "iculate": 4884,
    " Again": 4885,
    "avill": 4886,
    "aville": 4887,
    "philosop": 4888,
    " married": 4889,
    " Arve": 4890,
    " boundary": 4891,
    " offer": 4892,
    " calmed": 4893,
    " calc": 4894,
    " intend": 4895,
    " additional": 4896,
    " strangely": 4897,
    " copying": 4898,
    " sympathise": 4899,
    " sympathies": 4900,
    "afted": 4901,
    "ailed": 4902,
    "young": 4903,
    "oubted": 4904,
    " places": 4905,
    "cribed": 4906,
    " leg": 4907,
    " assure": 4908,
    " observe": 4909,
    " promontory": 4910,
    " subs": 4911,
    " wrote": 4912,
    "orrows": 4913,
    " illumin": 4914,
    " reading": 4915,
    "nocence": 4916,
    "avenza": 4917,
    "enery": 4918,
    " Remember": 4919,
    " leaving": 4920,
    " resolving": 4921,
    " relations": 4922,
    " relation": 4923,
    " curs": 4924,
    " imagine": 4925,
    " images": 4926,
    " Information": 4927,
    " flowed": 4928,
    " fles": 4929,
    " flesh": 4930,
    " torrent": 4931,
    " incapable": 4932,
    " incred": 4933,
    " wonders": 4934,
    " believes": 4935,
    "ceptible": 4936,
    "ival": 4937,
    "prot": 4938,
    " seems": 4939,
    " destroying": 4940,
    " pursuits": 4941,
    " smiled": 4942,
    " lightning": 4943,
    "common": 4944,
    "restrained": 4945,
    " crush": 4946,
    " glance": 4947,
    " glim": 4948,
    " extinction": 4949,
    " watched": 4950,
    " check": 4951,
    " visits": 4952,
    " visions": 4953,
    " appearances": 4954,
    " throw": 4955,
    " childhood": 4956,
    " childish": 4957,
    " Nay": 4958,
    " Now": 4959,
    " Nor": 4960,
    " confused": 4961,
    " confidence": 4962,
    " sunshine": 4963,
    "ulled": 4964,
    " guided": 4965,
    " guit": 4966,
    " guitar": 4967,
    " 19": 4968,
    " 18": 4969,
    " 12": 4970,
    " 11": 4971,
    "aution": 4972,
    " bring": 4973,
    " instig": 4974,
    " depressed": 4975,
    "airs": 4976,
    "exist": 4977,
    " earli": 4978,
    "lease": 4979,
    " recollect": 4980,
    " Desp": 4981,
    " Did": 4982,
    "igned": 4983,
    " monst": 4984,
    "ittance": 4985,
    " clothes": 4986,
    " clasp": 4987,
    " clung": 4988,
    " cling": 4989,
    " reply": 4990,
    " repe": 4991,
    " nights": 4992,
    " disclaim": 4993,
    "ottom": 4994,
    "ffectual": 4995,
    " impr": 4996,
    " rapt": 4997,
    " gradually": 4998,
    " grant": 4999,
    " grate": 5000,
    " poets": 5001,
    " pock": 5002,
    " pocket": 5003,
    " pole": 5004,
    " preserve": 5005,
    " countries": 5006,
    " LI": 5007,
    "iously": 5008,
    " distorted": 5009,
    " distinguished": 5010,
    " distress": 5011,
    " refres": 5012,
    " refreshed": 5013,
    " Or": 5014,
    "while": 5015,
    "whom": 5016,
    " happier": 5017,
    "conject": 5018,
    " attachment": 5019,
    " thence": 5020,
    "anguish": 5021,
    " resource": 5022,
    " resided": 5023,
    "rememb": 5024,
    "remorse": 5025,
    " scenery": 5026,
    " scream": 5027,
    " becom": 5028,
    " owner": 5029,
    " overh": 5030,
    " accents": 5031,
    " accent": 5032,
    " contented": 5033,
    " contempt": 5034,
    " miserably": 5035,
    " blast": 5036,
    " blow": 5037,
    " obl": 5038,
    " obliter": 5039,
    " retire": 5040,
    " Here": 5041,
    " endued": 5042,
    "became": 5043,
    "believe": 5044,
    "become": 5045,
    "beheld": 5046,
    "beings": 5047,
    "bey": 5048,
    "—”": 5049,
    "—“": 5050,
    " entic": 5051,
    " somewhat": 5052,
    " someone": 5053,
    " abode": 5054,
    " compliance": 5055,
    "retired": 5056,
    "retch": 5057,
    " Presently": 5058,
    " Poor": 5059,
    " remove": 5060,
    " remind": 5061,
    "fulf": 5062,
    "ofty": 5063,
    " GUTENBERG": 5064,
    " Gener": 5065,
    " mischief": 5066,
    " journal": 5067,
    "bert": 5068,
    "lake": 5069,
    "lared": 5070,
    " theirs": 5071,
    "jects": 5072,
    "necessary": 5073,
    "having": 5074,
    " rout": 5075,
    " run": 5076,
    " rust": 5077,
    " rustic": 5078,
    " noon": 5079,
    " encompassed": 5080,
    " ensuing": 5081,
    " enra": 5082,
    " Ed": 5083,
    " Edin": 5084,
    " Edinburgh": 5085,
    " imper": 5086,
    " necessity": 5087,
    " ages": 5088,
    " disposition": 5089,
    " disd": 5090,
    " disdain": 5091,
    " WARRANT": 5092,
    " descent": 5093,
    " ambition": 5094,
    " charm": 5095,
    " chill": 5096,
    "astened": 5097,
    "oper": 5098,
    "opy": 5099,
    "agony": 5100,
    "uneral": 5101,
    "unishment": 5102,
    "rang": 5103,
    " Saville": 5104,
    " Sal": 5105,
    " Salêve": 5106,
    " Mad": 5107,
    " Madame": 5108,
    " May": 5109,
    "usions": 5110,
    "uss": 5111,
    "olunt": 5112,
    "oles": 5113,
    " Have": 5114,
    "antly": 5115,
    " uncommon": 5116,
    " unparalleled": 5117,
    " unjust": 5118,
    " unhappiness": 5119,
    " unacquainted": 5120,
    " unif": 5121,
    " uniform": 5122,
    " unh": 5123,
    " unhallowed": 5124,
    " order": 5125,
    "umption": 5126,
    "ump": 5127,
    " worse": 5128,
    " sailed": 5129,
    " sav": 5130,
    " Americ": 5131,
    " Am": 5132,
    " AN": 5133,
    " ANY": 5134,
    "acked": 5135,
    "acal": 5136,
    "acy": 5137,
    " sprang": 5138,
    " spread": 5139,
    " spite": 5140,
    " sport": 5141,
    "key": 5142,
    "ouses": 5143,
    "endicul": 5144,
    "ending": 5145,
    "employed": 5146,
    "emy": 5147,
    "early": 5148,
    "eaks": 5149,
    "inding": 5150,
    "quiet": 5151,
    "resolved": 5152,
    " herb": 5153,
    "esty": 5154,
    " soothing": 5155,
    " seat": 5156,
    " send": 5157,
    "ulations": 5158,
    " shock": 5159,
    " shade": 5160,
    " share": 5161,
    " ate": 5162,
    "urely": 5163,
    " vines": 5164,
    " vac": 5165,
    " vow": 5166,
    " vo": 5167,
    " voices": 5168,
    "ilgrimage": 5169,
    "ilation": 5170,
    "ources": 5171,
    "ourning": 5172,
    " exclam": 5173,
    " exult": 5174,
    " exch": 5175,
    " exchanged": 5176,
    " Two": 5177,
    " Then": 5178,
    "ands": 5179,
    "charge": 5180,
    " stones": 5181,
    " stup": 5182,
    " start": 5183,
    " store": 5184,
    " stay": 5185,
    " stir": 5186,
    " sting": 5187,
    "liver": 5188,
    " conjure": 5189,
    " conclusion": 5190,
    " converse": 5191,
    " constant": 5192,
    "ambition": 5193,
    "among": 5194,
    " ann": 5195,
    "ational": 5196,
    "than": 5197,
    "ths": 5198,
    "adm": 5199,
    " website": 5200,
    "aining": 5201,
    " notes": 5202,
    " delic": 5203,
    " demon": 5204,
    " deceived": 5205,
    " assembl": 5206,
    " aside": 5207,
    " asy": 5208,
    " asyl": 5209,
    " asylum": 5210,
    " unt": 5211,
    "room": 5212,
    "roat": 5213,
    "etite": 5214,
    " online": 5215,
    " gigantic": 5216,
    "almost": 5217,
    "alty": 5218,
    "along": 5219,
    "ala": 5220,
    "alais": 5221,
    "urope": 5222,
    "uries": 5223,
    "urable": 5224,
    " mechan": 5225,
    " ye": 5226,
    "otence": 5227,
    "seek": 5228,
    "several": 5229,
    "sever": 5230,
    "sect": 5231,
    "seen": 5232,
    "set": 5233,
    "entirely": 5234,
    "entiful": 5235,
    " relig": 5236,
    " research": 5237,
    " rejo": 5238,
    " relief": 5239,
    " rent": 5240,
    "•": 5241,
    " height": 5242,
    "stem": 5243,
    "still": 5244,
    "lev": 5245,
    " beast": 5246,
    " bend": 5247,
    " hailed": 5248,
    "utions": 5249,
    "icious": 5250,
    " eight": 5251,
    " ep": 5252,
    " lofty": 5253,
    " license": 5254,
    " lower": 5255,
    " lies": 5256,
    " line": 5257,
    " northern": 5258,
    " number": 5259,
    " nursed": 5260,
    " nav": 5261,
    "lled": 5262,
    "ingled": 5263,
    " inanimate": 5264,
    " inaccessible": 5265,
    " induce": 5266,
    " included": 5267,
    " informed": 5268,
    " ine": 5269,
    " throat": 5270,
    "arable": 5271,
    " pilgrimage": 5272,
    " paying": 5273,
    " poured": 5274,
    " pause": 5275,
    " page": 5276,
    " pra": 5277,
    " pure": 5278,
    "asburgh": 5279,
    "asions": 5280,
    "oral": 5281,
    " dashing": 5282,
    " darling": 5283,
    " dungeon": 5284,
    " dying": 5285,
    " dwell": 5286,
    " dressed": 5287,
    " dust": 5288,
    " dr": 5289,
    " tore": 5290,
    " tom": 5291,
    "ese": 5292,
    " collection": 5293,
    " cross": 5294,
    " cher": 5295,
    "itself": 5296,
    "isible": 5297,
    "isher": 5298,
    "ises": 5299,
    "isen": 5300,
    " ho": 5301,
    " Ind": 5302,
    " fashion": 5303,
    " fills": 5304,
    " fast": 5305,
    " fra": 5306,
    " fif": 5307,
    " fan": 5308,
    " born": 5309,
    " bread": 5310,
    " bade": 5311,
    " bid": 5312,
    " bal": 5313,
    "enemy": 5314,
    "enseless": 5315,
    "enjoy": 5316,
    "outh": 5317,
    "ators": 5318,
    "athed": 5319,
    "erg": 5320,
    "edious": 5321,
    " squalid": 5322,
    " song": 5323,
    " sac": 5324,
    " sal": 5325,
    " omnip": 5326,
    " od": 5327,
    " odious": 5328,
    " theory": 5329,
    " moral": 5330,
    " mourning": 5331,
    " matter": 5332,
    " morrow": 5333,
    " mass": 5334,
    " mach": 5335,
    " mould": 5336,
    " wafted": 5337,
    " women": 5338,
    " walls": 5339,
    "revenge": 5340,
    "reason": 5341,
    "reland": 5342,
    "innocence": 5343,
    "instantly": 5344,
    "inhab": 5345,
    "inished": 5346,
    "inning": 5347,
    "inst": 5348,
    "inc": 5349,
    " avalanche": 5350,
    " authors": 5351,
    " action": 5352,
    "heard": 5353,
    "hest": 5354,
    " tedious": 5355,
    " treatment": 5356,
    " taste": 5357,
    " treas": 5358,
    " tread": 5359,
    " try": 5360,
    " tour": 5361,
    " tre": 5362,
    "woman": 5363,
    "wish": 5364,
    "voice": 5365,
    "vice": 5366,
    "vation": 5367,
    "tears": 5368,
    "tra": 5369,
    "tri": 5370,
    "tic": 5371,
    "sister": 5372,
    "side": 5373,
    "sight": 5374,
    "sent": 5375,
    "sy": 5376,
    "rough": 5377,
    "rather": 5378,
    "ration": 5379,
    "passion": 5380,
    "peace": 5381,
    "pet": 5382,
    "pen": 5383,
    "ox": 5384,
    "nature": 5385,
    "mal": 5386,
    "length": 5387,
    "langu": 5388,
    "lerable": 5389,
    "lost": 5390,
    "loo": 5391,
    "iacal": 5392,
    "iers": 5393,
    "ived": 5394,
    "hope": 5395,
    "high": 5396,
    "grief": 5397,
    "give": 5398,
    "ga": 5399,
    "face": 5400,
    "field": 5401,
    "fam": 5402,
    "elev": 5403,
    "erer": 5404,
    "ean": 5405,
    "doubt": 5406,
    "dated": 5407,
    "cousin": 5408,
    "circumst": 5409,
    "case": 5410,
    "covered": 5411,
    "care": 5412,
    "cal": 5413,
    "co": 5414,
    "beaut": 5415,
    "bitter": 5416,
    "bour": 5417,
    "bre": 5418,
    "aud": 5419,
    "_.": 5420,
    "There": 5421,
    "ON": 5422,
    "Letter": 5423,
    "IL": 5424,
    "Good": 5425,
    "Great": 5426,
    "During": 5427,
    "Dear": 5428,
    "Come": 5429,
    "CH": 5430,
    "August": 5431,
    "About": 5432,
    "Are": 5433,
    "An": 5434,
    "AT": 5435,
    " •": 5436,
    " gh": 5437,
    " [": 5438,
    " ghast": 5439,
    " ghastly": 5440,
    "ILITY": 5441,
    "gazed": 5442,
    "looked": 5443,
    "traversed": 5444,
    " treac": 5445,
    " treacher": 5446,
    "instr": 5447,
    "inhabited": 5448,
    " omnipotent": 5449,
    " songs": 5450,
    "ishermen": 5451,
    " tomb": 5452,
    " drun": 5453,
    " navig": 5454,
    " navigators": 5455,
    " rejoiced": 5456,
    " religion": 5457,
    " mechanism": 5458,
    " demoniacal": 5459,
    "admiration": 5460,
    " stirred": 5461,
    " stupendous": 5462,
    " exultation": 5463,
    " exclamation": 5464,
    "endicular": 5465,
    " America": 5466,
    " savage": 5467,
    "opyright": 5468,
    "bertus": 5469,
    " General": 5470,
    " obliterated": 5471,
    " overhung": 5472,
    " becoming": 5473,
    " rapture": 5474,
    " monstrous": 5475,
    " earlier": 5476,
    "existence": 5477,
    " instigated": 5478,
    " glimmer": 5479,
    "protected": 5480,
    " cursory": 5481,
    "philosophy": 5482,
    "contemplated": 5483,
    " irreparable": 5484,
    " breathless": 5485,
    "persuade": 5486,
    "ewels": 5487,
    " befallen": 5488,
    " augmented": 5489,
    " college": 5490,
    "States": 5491,
    "THE": 5492,
    "gentle": 5493,
    "listened": 5494,
    "magnificent": 5495,
    "uctu": 5496,
    "wonder": 5497,
    " wrapped": 5498,
    " swelled": 5499,
    " brave": 5500,
    " floor": 5501,
    " pistol": 5502,
    " eluded": 5503,
    "stranger": 5504,
    " gnashed": 5505,
    " ugly": 5506,
    " defective": 5507,
    "advanced": 5508,
    "ilarity": 5509,
    "question": 5510,
    " spectre": 5511,
    " sparkled": 5512,
    "devoted": 5513,
    "ustrious": 5514,
    " uneasy": 5515,
    " chimer": 5516,
    " kneel": 5517,
    " radiant": 5518,
    " rashly": 5519,
    " expedition": 5520,
    " abandoned": 5521,
    " accomplish": 5522,
    " accumulated": 5523,
    " closer": 5524,
    " recommence": 5525,
    " recurred": 5526,
    "extinguished": 5527,
    " NOT": 5528,
    " sensitive": 5529,
    " opinion": 5530,
    "describe": 5531,
    "controll": 5532,
    " irresist": 5533,
    " irresistible": 5534,
    "supportable": 5535,
    " steeple": 5536,
    "cheerful": 5537,
    " apprehension": 5538,
    " esteem": 5539,
    "freely": 5540,
    "lainp": 5541,
    "lainpalais": 5542,
    "matics": 5543,
    "marriage": 5544,
    "painful": 5545,
    "sensations": 5546,
    " tumultuous": 5547,
    " autumn": 5548,
    " author": 5549,
    " mirac": 5550,
    " owed": 5551,
    " fervour": 5552,
    " catast": 5553,
    " catastro": 5554,
    " catastrop": 5555,
    " catastrophe": 5556,
    " cracked": 5557,
    " portra": 5558,
    " portrait": 5559,
    " patience": 5560,
    " mysterious": 5561,
    " luxury": 5562,
    " links": 5563,
    " reveries": 5564,
    " measure": 5565,
    " gestures": 5566,
    " standing": 5567,
    "ifficulty": 5568,
    " shrie": 5569,
    " shrieked": 5570,
    " combined": 5571,
    "osphere": 5572,
    " agonies": 5573,
    " Belrive": 5574,
    " enchanting": 5575,
    "beginning": 5576,
    "began": 5577,
    " replacement": 5578,
    " recesses": 5579,
    "commence": 5580,
    " leagues": 5581,
    " league": 5582,
    " intimate": 5583,
    " carelessness": 5584,
    " oppressive": 5585,
    "destroyed": 5586,
    " tempest": 5587,
    "bestow": 5588,
    "darkness": 5589,
    "observed": 5590,
    "smiles": 5591,
    "waves": 5592,
    "water": 5593,
    "warmth": 5594,
    " temptation": 5595,
    " collecting": 5596,
    " cultivated": 5597,
    " cultivation": 5598,
    " deriv": 5599,
    " derivative": 5600,
    " derive": 5601,
    " deny": 5602,
    " posted": 5603,
    " practical": 5604,
    " inspired": 5605,
    " inexorable": 5606,
    " efforts": 5607,
    "study": 5608,
    " defence": 5609,
    "children": 5610,
    "earthly": 5611,
    " Perth": 5612,
    "suffici": 5613,
    " impression": 5614,
    " impatience": 5615,
    " impatient": 5616,
    " instructions": 5617,
    " fixing": 5618,
    " despondency": 5619,
    " introduced": 5620,
    " wanderings": 5621,
    " travels": 5622,
    " freedom": 5623,
    " proportionably": 5624,
    "occupied": 5625,
    " perpetual": 5626,
    " shuddering": 5627,
    " principally": 5628,
    " principal": 5629,
    " governments": 5630,
    " government": 5631,
    " original": 5632,
    "Archive": 5633,
    "bounded": 5634,
    "flowed": 5635,
    "radation": 5636,
    " slavery": 5637,
    " highest": 5638,
    " drawn": 5639,
    " payments": 5640,
    " peculiar": 5641,
    " injury": 5642,
    " nerves": 5643,
    " hairs": 5644,
    " heavily": 5645,
    " reveal": 5646,
    " forgive": 5647,
    "umberland": 5648,
    "remaining": 5649,
    " glaciers": 5650,
    " improvements": 5651,
    " frequent": 5652,
    "interesting": 5653,
    "interested": 5654,
    "crease": 5655,
    "cannot": 5656,
    "fixed": 5657,
    "mingled": 5658,
    "murder": 5659,
    " wreak": 5660,
    " serious": 5661,
    " further": 5662,
    " penetrated": 5663,
    " undist": 5664,
    " undisturbed": 5665,
    " valued": 5666,
    " valu": 5667,
    " valuable": 5668,
    " applicable": 5669,
    " displayed": 5670,
    " remarkably": 5671,
    " attentively": 5672,
    "confess": 5673,
    " preyed": 5674,
    " preceded": 5675,
    " ravings": 5676,
    " ravine": 5677,
    " recorded": 5678,
    " particulars": 5679,
    "manners": 5680,
    "continued": 5681,
    " falsehood": 5682,
    "Begone": 5683,
    "Before": 5684,
    "ITED": 5685,
    "infant": 5686,
    " frozen": 5687,
    "endeavour": 5688,
    "ortunately": 5689,
    " neighbouring": 5690,
    " contemplate": 5691,
    " overwhelming": 5692,
    "spirited": 5693,
    " slowly": 5694,
    " exhibit": 5695,
    "mighty": 5696,
    "trademark": 5697,
    " slightest": 5698,
    " breathe": 5699,
    " papa": 5700,
    "sembled": 5701,
    "alties": 5702,
    " stopped": 5703,
    " stock": 5704,
    " streams": 5705,
    " expectation": 5706,
    " details": 5707,
    " characters": 5708,
    "affold": 5709,
    "evil": 5710,
    "occur": 5711,
    "parated": 5712,
    "scape": 5713,
    " firmness": 5714,
    " firmly": 5715,
    " hateful": 5716,
    " drove": 5717,
    " drop": 5718,
    " pretence": 5719,
    " shades": 5720,
    " seasons": 5721,
    " probability": 5722,
    " Swiss": 5723,
    " failure": 5724,
    " failing": 5725,
    " devils": 5726,
    " benefact": 5727,
    " paragraphs": 5728,
    " cheerfulness": 5729,
    "chemist": 5730,
    "creature": 5731,
    "possess": 5732,
    " awake": 5733,
    " awful": 5734,
    " awa": 5735,
    " singular": 5736,
    "enetr": 5737,
    "enetrable": 5738,
    " foe": 5739,
    "animation": 5740,
    "animal": 5741,
    " pictures": 5742,
    " grace": 5743,
    " THIS": 5744,
    "cientific": 5745,
    " exploded": 5746,
    " explain": 5747,
    " Christian": 5748,
    "whole": 5749,
    " embark": 5750,
    " excessive": 5751,
    " condemn": 5752,
    "cottagers": 5753,
    "lux": 5754,
    " merits": 5755,
    " merc": 5756,
    " invisible": 5757,
    "secut": 5758,
    "secutor": 5759,
    " declare": 5760,
    " decline": 5761,
    " according": 5762,
    " consumed": 5763,
    " consume": 5764,
    " undertake": 5765,
    " assistance": 5766,
    " assisted": 5767,
    " afforded": 5768,
    " astonished": 5769,
    "afterwards": 5770,
    " busied": 5771,
    " frightened": 5772,
    " narrow": 5773,
    " executed": 5774,
    " execute": 5775,
    " complying": 5776,
    " commencement": 5777,
    "husiastic": 5778,
    " profession": 5779,
    " editions": 5780,
    " edge": 5781,
    "destiny": 5782,
    "prejud": 5783,
    " talent": 5784,
    " avo": 5785,
    " avoided": 5786,
    " breaking": 5787,
    " inquiries": 5788,
    " inquirer": 5789,
    " inquisit": 5790,
    " supernatural": 5791,
    " examining": 5792,
    "accidents": 5793,
    " immut": 5794,
    " immutable": 5795,
    " respected": 5796,
    " attendant": 5797,
    "mediate": 5798,
    " occurrences": 5799,
    " occurrence": 5800,
    "brary": 5801,
    "iligence": 5802,
    "mountains": 5803,
    "mountain": 5804,
    "ogy": 5805,
    " burnt": 5806,
    " putting": 5807,
    " elements": 5808,
    " equip": 5809,
    " equipment": 5810,
    " meaning": 5811,
    " victims": 5812,
    "ugn": 5813,
    "ugnance": 5814,
    "record": 5815,
    " mistress": 5816,
    " mists": 5817,
    " sentiment": 5818,
    " sickening": 5819,
    "ernal": 5820,
    " corruption": 5821,
    " limb": 5822,
    " revived": 5823,
    " vessels": 5824,
    " villagers": 5825,
    " disappo": 5826,
    " disappointed": 5827,
    " judgment": 5828,
    " judged": 5829,
    " absol": 5830,
    " absor": 5831,
    " cloudless": 5832,
    "grity": 5833,
    " wildest": 5834,
    " wilds": 5835,
    " madman": 5836,
    " insati": 5837,
    " insan": 5838,
    " insanity": 5839,
    "Here": 5840,
    "prop": 5841,
    "prog": 5842,
    "progress": 5843,
    "ughter": 5844,
    "understand": 5845,
    "undert": 5846,
    " services": 5847,
    " barren": 5848,
    " causes": 5849,
    " caves": 5850,
    " cleared": 5851,
    " clean": 5852,
    "expected": 5853,
    "expect": 5854,
    "expectation": 5855,
    " considerably": 5856,
    " highly": 5857,
    "orner": 5858,
    "orns": 5859,
    " persuad": 5860,
    " tortured": 5861,
    " diffused": 5862,
    " sweetness": 5863,
    " capacity": 5864,
    "escence": 5865,
    "asket": 5866,
    " painful": 5867,
    " useful": 5868,
    " admired": 5869,
    " admir": 5870,
    " admirable": 5871,
    " watchful": 5872,
    "people": 5873,
    " snows": 5874,
    " street": 5875,
    " views": 5876,
    " accounts": 5877,
    "consolate": 5878,
    "conscious": 5879,
    "consolation": 5880,
    "reasing": 5881,
    " wandering": 5882,
    " Still": 5883,
    " Str": 5884,
    " Strasburgh": 5885,
    "complete": 5886,
    "compassion": 5887,
    "compan": 5888,
    " persons": 5889,
    " utterance": 5890,
    "eye": 5891,
    " affirm": 5892,
    " sorrows": 5893,
    " dreadfully": 5894,
    " languor": 5895,
    " However": 5896,
    " providing": 5897,
    "valescence": 5898,
    "intercourse": 5899,
    "repare": 5900,
    " declared": 5901,
    " playing": 5902,
    " refused": 5903,
    " acquired": 5904,
    " acquire": 5905,
    "works": 5906,
    "world": 5907,
    " active": 5908,
    " ruined": 5909,
    " rule": 5910,
    "getab": 5911,
    "getables": 5912,
    " bodily": 5913,
    " bodies": 5914,
    " silver": 5915,
    "attracted": 5916,
    " landscape": 5917,
    " learning": 5918,
    " heavenly": 5919,
    " advancing": 5920,
    " advance": 5921,
    " advent": 5922,
    "content": 5923,
    "desired": 5924,
    "desire": 5925,
    " career": 5926,
    " listless": 5927,
    " airs": 5928,
    "erial": 5929,
    "horred": 5930,
    "phan": 5931,
    " marve": 5932,
    " marvell": 5933,
    " marvellous": 5934,
    " integrity": 5935,
    " charged": 5936,
    "actly": 5937,
    " bounded": 5938,
    " official": 5939,
    " offsp": 5940,
    " offspring": 5941,
    " intentions": 5942,
    " betr": 5943,
    "\n    \n   ": 5944,
    "youth": 5945,
    " studied": 5946,
    " student": 5947,
    "cription": 5948,
    "swallowed": 5949,
    " bestowing": 5950,
    " inflicted": 5951,
    " inflict": 5952,
    " infancy": 5953,
    " infl": 5954,
    " inflamed": 5955,
    "misfortun": 5956,
    "misfortunes": 5957,
    " devote": 5958,
    " devouring": 5959,
    " subdu": 5960,
    " subdued": 5961,
    " subst": 5962,
    " substance": 5963,
    "months": 5964,
    "monster": 5965,
    "happened": 5966,
    " sympt": 5967,
    " symptoms": 5968,
    "ittering": 5969,
    " ready": 5970,
    "enerable": 5971,
    " degradation": 5972,
    " delightful": 5973,
    " delights": 5974,
    " occupy": 5975,
    " Russ": 5976,
    " RE": 5977,
    " intercourse": 5978,
    " intercept": 5979,
    " interfe": 5980,
    " interfere": 5981,
    " regularly": 5982,
    " region": 5983,
    " relinqu": 5984,
    " relates": 5985,
    " ident": 5986,
    " idle": 5987,
    " current": 5988,
    " imaginations": 5989,
    " system": 5990,
    " souther": 5991,
    " southern": 5992,
    "intention": 5993,
    " traversed": 5994,
    " track": 5995,
    " trait": 5996,
    " fluctu": 5997,
    " flash": 5998,
    " flow": 5999,
    "assure": 6000,
    "assin": 6001,
    " incre": 6002,
    " increase": 6003,
    " begg": 6004,
    " suppress": 6005,
    " supply": 6006,
    "rers": 6007,
    "ecution": 6008,
    "ivacity": 6009,
    "ivity": 6010,
    " gaiety": 6011,
    " joyous": 6012,
    " seemingly": 6013,
    " pursuing": 6014,
    " smil": 6015,
    " smiling": 6016,
    "committed": 6017,
    " tramp": 6018,
    " outcast": 6019,
    " outward": 6020,
    " crown": 6021,
    " glittering": 6022,
    " glut": 6023,
    " cheese": 6024,
    " checked": 6025,
    " vision": 6026,
    "fortunately": 6027,
    "mean": 6028,
    " affected": 6029,
    "black": 6030,
    "versation": 6031,
    "version": 6032,
    " possibly": 6033,
    " sensibility": 6034,
    " indeli": 6035,
    " emotion": 6036,
    " emac": 6037,
    " emaciated": 6038,
    " sooner": 6039,
    " Nothing": 6040,
    " Never": 6041,
    " Night": 6042,
    " Not": 6043,
    "ordingly": 6044,
    " pleasures": 6045,
    " please": 6046,
    " fearing": 6047,
    " conflict": 6048,
    " confusion": 6049,
    " confide": 6050,
    " surmount": 6051,
    " guess": 6052,
    " 13": 6053,
    " 10": 6054,
    "author": 6055,
    "lands": 6056,
    "orses": 6057,
    "lieved": 6058,
    "ermany": 6059,
    " depended": 6060,
    " dearly": 6061,
    " commit": 6062,
    " commis": 6063,
    " evid": 6064,
    " evidently": 6065,
    "renzy": 6066,
    "shore": 6067,
    " party": 6068,
    "execution": 6069,
    " murmur": 6070,
    " recalled": 6071,
    " recomp": 6072,
    " recovery": 6073,
    " recent": 6074,
    " uses": 6075,
    " user": 6076,
    "ertained": 6077,
    "ertion": 6078,
    " DIS": 6079,
    " Dan": 6080,
    " Dani": 6081,
    " Daniel": 6082,
    "clusions": 6083,
    "cles": 6084,
    " rests": 6085,
    "itterest": 6086,
    " class": 6087,
    " clue": 6088,
    " clings": 6089,
    " clim": 6090,
    " replete": 6091,
    " republic": 6092,
    " report": 6093,
    " repres": 6094,
    " repro": 6095,
    "lightened": 6096,
    "lighted": 6097,
    " Ital": 6098,
    " Its": 6099,
    " loveliness": 6100,
    " discl": 6101,
    " disclose": 6102,
    " minds": 6103,
    " impenetrable": 6104,
    " impulses": 6105,
    " import": 6106,
    " rocks": 6107,
    " roots": 6108,
    " roared": 6109,
    " roy": 6110,
    " raft": 6111,
    " foundations": 6112,
    " grou": 6113,
    " group": 6114,
    " grin": 6115,
    " poignant": 6116,
    " pointed": 6117,
    " poet": 6118,
    " presumption": 6119,
    " faith": 6120,
    " Lavenza": 6121,
    " Lear": 6122,
    " Learn": 6123,
    " Ly": 6124,
    " distr": 6125,
    "loak": 6126,
    "whose": 6127,
    "ferent": 6128,
    "few": 6129,
    "conversation": 6130,
    " plentiful": 6131,
    " plunge": 6132,
    " consisted": 6133,
    " attracted": 6134,
    " attributed": 6135,
    "anges": 6136,
    "remitting": 6137,
    "remony": 6138,
    "remains": 6139,
    "remained": 6140,
    " scattered": 6141,
    " scope": 6142,
    " scorn": 6143,
    " Yes": 6144,
    "ples": 6145,
    "perform": 6146,
    "perate": 6147,
    " adored": 6148,
    "soever": 6149,
    " contrived": 6150,
    " contained": 6151,
    " quitting": 6152,
    " quar": 6153,
    " bliss": 6154,
    " blows": 6155,
    " blot": 6156,
    " obst": 6157,
    " intolerable": 6158,
    " ourselves": 6159,
    "forget": 6160,
    " thanked": 6161,
    " endowed": 6162,
    "odlike": 6163,
    " Cursed": 6164,
    " Cont": 6165,
    " Car": 6166,
    " Carol": 6167,
    " Caroline": 6168,
    "rugged": 6169,
    " library": 6170,
    " liv": 6171,
    " livid": 6172,
    "akened": 6173,
    "rying": 6174,
    " entertained": 6175,
    " entire": 6176,
    " entity": 6177,
    "wept": 6178,
    " abroad": 6179,
    "super": 6180,
    "sub": 6181,
    " composed": 6182,
    " compens": 6183,
    " comput": 6184,
    " compl": 6185,
    " exposed": 6186,
    " expand": 6187,
    " Plainpalais": 6188,
    "eping": 6189,
    "eps": 6190,
    "ieces": 6191,
    "cibly": 6192,
    "cile": 6193,
    " FOR": 6194,
    "oyage": 6195,
    " Gre": 6196,
    "onds": 6197,
    " peril": 6198,
    " mission": 6199,
    "igence": 6200,
    " jewels": 6201,
    "\n\n   ": 6202,
    "laxed": 6203,
    "jected": 6204,
    "next": 6205,
    "hair": 6206,
    "hav": 6207,
    " risen": 6208,
    " rays": 6209,
    " rul": 6210,
    " rich": 6211,
    " enlightened": 6212,
    " enveloped": 6213,
    " enable": 6214,
    " ens": 6215,
    "urning": 6216,
    " Europe": 6217,
    " Ex": 6218,
    " Ev": 6219,
    " Em": 6220,
    " Besides": 6221,
    " imitate": 6222,
    " image": 6223,
    " shel": 6224,
    " shelter": 6225,
    " neat": 6226,
    " willingly": 6227,
    " aged": 6228,
    " disconsolate": 6229,
    " disk": 6230,
    " Was": 6231,
    "aths": 6232,
    " deserted": 6233,
    " deserving": 6234,
    " deserve": 6235,
    " desir": 6236,
    " desirous": 6237,
    " appetite": 6238,
    " king": 6239,
    " changes": 6240,
    " chival": 6241,
    " chains": 6242,
    "astes": 6243,
    "aston": 6244,
    "ovelt": 6245,
    "ortions": 6246,
    "opened": 6247,
    "ersburgh": 6248,
    "aging": 6249,
    "agre": 6250,
    "agreement": 6251,
    "agn": 6252,
    "agnus": 6253,
    "unwilling": 6254,
    "unfortunate": 6255,
    "unned": 6256,
    "unged": 6257,
    "venience": 6258,
    "rank": 6259,
    " Scotland": 6260,
    " Suddenly": 6261,
    " Serv": 6262,
    " Magnus": 6263,
    " March": 6264,
    " Mil": 6265,
    " Milan": 6266,
    " Mis": 6267,
    "usual": 6268,
    " projects": 6269,
    " process": 6270,
    " produ": 6271,
    " pros": 6272,
    " prosper": 6273,
    "olt": 6274,
    " wholl": 6275,
    " wholly": 6276,
    " Hear": 6277,
    " unusual": 6278,
    " unfortunately": 6279,
    " unmingled": 6280,
    " unsatisf": 6281,
    " uncertain": 6282,
    " unnatural": 6283,
    "ustained": 6284,
    " orphan": 6285,
    " org": 6286,
    " ord": 6287,
    "umer": 6288,
    "umerous": 6289,
    "dead": 6290,
    "deg": 6291,
    "dec": 6292,
    " yours": 6293,
    " worst": 6294,
    " worn": 6295,
    "arther": 6296,
    "elan": 6297,
    "elancholy": 6298,
    " Adam": 6299,
    " About": 6300,
    " AG": 6301,
    " AGRE": 6302,
    "account": 6303,
    " spurned": 6304,
    " space": 6305,
    " spare": 6306,
    " spr": 6307,
    " spo": 6308,
    " spl": 6309,
    "ously": 6310,
    "istribut": 6311,
    "istered": 6312,
    "reating": 6313,
    "emory": 6314,
    "ements": 6315,
    "emp": 6316,
    "earnest": 6317,
    "earest": 6318,
    " issu": 6319,
    "quate": 6320,
    "resp": 6321,
    "arded": 6322,
    " hers": 6323,
    "estim": 6324,
    " sof": 6325,
    " soften": 6326,
    " selected": 6327,
    " secluded": 6328,
    " seated": 6329,
    " sever": 6330,
    " severity": 6331,
    "ulted": 6332,
    " shunned": 6333,
    " shared": 6334,
    " shown": 6335,
    " shake": 6336,
    " shine": 6337,
    " show": 6338,
    " venerable": 6339,
    " vivid": 6340,
    " void": 6341,
    " vig": 6342,
    "ilities": 6343,
    "iless": 6344,
    "ourishment": 6345,
    "ourse": 6346,
    " exactly": 6347,
    " exempt": 6348,
    " exas": 6349,
    " sugg": 6350,
    " sure": 6351,
    " fees": 6352,
    "chamber": 6353,
    "chie": 6354,
    "char": 6355,
    "ifferent": 6356,
    "illa": 6357,
    " status": 6358,
    " stro": 6359,
    " strove": 6360,
    "lif": 6361,
    " constructed": 6362,
    " concluded": 6363,
    " consec": 6364,
    "aments": 6365,
    "aming": 6366,
    "terrible": 6367,
    "tering": 6368,
    "above": 6369,
    "things": 6370,
    "those": 6371,
    "threat": 6372,
    "herself": 6373,
    " deliver": 6374,
    " deemed": 6375,
    " deformed": 6376,
    " dew": 6377,
    " ascent": 6378,
    "riev": 6379,
    "rile": 6380,
    "rilege": 6381,
    "rill": 6382,
    "rie": 6383,
    "essor": 6384,
    " forcibly": 6385,
    "idd": 6386,
    "iddle": 6387,
    "roken": 6388,
    "rock": 6389,
    "etersburgh": 6390,
    "ethe": 6391,
    "etheus": 6392,
    " withd": 6393,
    " gathered": 6394,
    " gift": 6395,
    " gush": 6396,
    " gall": 6397,
    " get": 6398,
    " gal": 6399,
    "also": 6400,
    "alone": 6401,
    "alk": 6402,
    "ird": 6403,
    "immediate": 6404,
    "urance": 6405,
    "urate": 6406,
    " meal": 6407,
    " mere": 6408,
    " waste": 6409,
    " wasted": 6410,
    " yellow": 6411,
    " yesterday": 6412,
    " whirl": 6413,
    " whale": 6414,
    "othed": 6415,
    "ceit": 6416,
    "enthusiastic": 6417,
    "entations": 6418,
    "ental": 6419,
    " reception": 6420,
    " reduced": 6421,
    " relied": 6422,
    " rely": 6423,
    "steps": 6424,
    "strate": 6425,
    "leave": 6426,
    "left": 6427,
    " bewildered": 6428,
    " belief": 6429,
    " bearing": 6430,
    "utarch": 6431,
    "utting": 6432,
    "uts": 6433,
    "icity": 6434,
    "icate": 6435,
    "icy": 6436,
    " ease": 6437,
    " eld": 6438,
    " lying": 6439,
    " laughter": 6440,
    " lately": 6441,
    " loss": 6442,
    "oment": 6443,
    "omy": 6444,
    " nourishment": 6445,
    " novelt": 6446,
    " niece": 6447,
    "ingling": 6448,
    " incomplete": 6449,
    " ingratitude": 6450,
    " injustice": 6451,
    " inform": 6452,
    "arked": 6453,
    "arran": 6454,
    " pieces": 6455,
    " pittance": 6456,
    " pardon": 6457,
    " pulse": 6458,
    " pines": 6459,
    " pier": 6460,
    " pail": 6461,
    " painted": 6462,
    " pile": 6463,
    " pop": 6464,
    " pat": 6465,
    "asing": 6466,
    "ane": 6467,
    "ords": 6468,
    "orry": 6469,
    "ories": 6470,
    "oration": 6471,
    " doubted": 6472,
    " drive": 6473,
    " dignity": 6474,
    " due": 6475,
    " dict": 6476,
    " tools": 6477,
    " toward": 6478,
    " tow": 6479,
    " top": 6480,
    " cloak": 6481,
    " corner": 6482,
    " crossed": 6483,
    " cool": 6484,
    " circ": 6485,
    " cup": 6486,
    " cla": 6487,
    " cand": 6488,
    " cent": 6489,
    "itical": 6490,
    "itable": 6491,
    "ithe": 6492,
    "isition": 6493,
    "isions": 6494,
    " horses": 6495,
    " hum": 6496,
    " Ireland": 6497,
    " farther": 6498,
    " frenzy": 6499,
    " fishermen": 6500,
    " funeral": 6501,
    " faint": 6502,
    " fishing": 6503,
    " fits": 6504,
    " fanc": 6505,
    " fired": 6506,
    " flight": 6507,
    " fold": 6508,
    " fish": 6509,
    " bonds": 6510,
    " bitterest": 6511,
    " bottom": 6512,
    " bud": 6513,
    " bought": 6514,
    " bas": 6515,
    "onations": 6516,
    "onate": 6517,
    "enched": 6518,
    "atlock": 6519,
    "erred": 6520,
    "erce": 6521,
    "edu": 6522,
    " sorry": 6523,
    " swept": 6524,
    " scientific": 6525,
    " senseless": 6526,
    " snatched": 6527,
    " six": 6528,
    " swelling": 6529,
    " mingled": 6530,
    " motives": 6531,
    " midnight": 6532,
    " motions": 6533,
    " midst": 6534,
    " wedding": 6535,
    " wants": 6536,
    " wip": 6537,
    " wore": 6538,
    " war": 6539,
    " won": 6540,
    "renew": 6541,
    "reary": 6542,
    "rend": 6543,
    "rev": 6544,
    "incible": 6545,
    "injustice": 6546,
    "inently": 6547,
    "inate": 6548,
    "inent": 6549,
    "iner": 6550,
    "inv": 6551,
    " achie": 6552,
    " acted": 6553,
    " aim": 6554,
    " tea": 6555,
    " tall": 6556,
    "zing": 6557,
    "zz": 6558,
    "years": 6559,
    "winds": 6560,
    "wood": 6561,
    "want": 6562,
    "wand": 6563,
    "voyage": 6564,
    "visit": 6565,
    "victim": 6566,
    "virt": 6567,
    "view": 6568,
    "uge": 6569,
    "uly": 6570,
    "ule": 6571,
    "taught": 6572,
    "took": 6573,
    "tale": 6574,
    "tried": 6575,
    "tled": 6576,
    "tain": 6577,
    "tor": 6578,
    "sustained": 6579,
    "since": 6580,
    "said": 6581,
    "suddenly": 6582,
    "sink": 6583,
    "situ": 6584,
    "shap": 6585,
    "sought": 6586,
    "same": 6587,
    "sive": 6588,
    "sur": 6589,
    "son": 6590,
    "rged": 6591,
    "pass": 6592,
    "pict": 6593,
    "pan": 6594,
    "obey": 6595,
    "nel": 6596,
    "nor": 6597,
    "moment": 6598,
    "mosphere": 6599,
    "money": 6600,
    "moon": 6601,
    "mency": 6602,
    "morning": 6603,
    "ms": 6604,
    "mo": 6605,
    "lutarch": 6606,
    "looks": 6607,
    "ler": 6608,
    "knew": 6609,
    "ike": 6610,
    "iour": 6611,
    "iation": 6612,
    "ih": 6613,
    "ihilation": 6614,
    "hastened": 6615,
    "hip": 6616,
    "ham": 6617,
    "gave": 6618,
    "ground": 6619,
    "gen": 6620,
    "gl": 6621,
    "fessor": 6622,
    "firm": 6623,
    "fold": 6624,
    "fear": 6625,
    "either": 6626,
    "ease": 6627,
    "eer": 6628,
    "eb": 6629,
    "donate": 6630,
    "difficulty": 6631,
    "dog": 6632,
    "dæmon": 6633,
    "dared": 6634,
    "dread": 6635,
    "died": 6636,
    "couth": 6637,
    "collect": 6638,
    "cured": 6639,
    "cher": 6640,
    "broken": 6641,
    "bbed": 6642,
    "bing": 6643,
    "aired": 6644,
    "away": 6645,
    "Walton": 6646,
    "VE": 6647,
    "Up": 6648,
    "TR": 6649,
    "TRI": 6650,
    "Sorrows": 6651,
    "Safie": 6652,
    "Some": 6653,
    "ST": 6654,
    "Poor": 6655,
    "Par": 6656,
    "Our": 6657,
    "Now": 6658,
    "MITED": 6659,
    "Mont": 6660,
    "May": 6661,
    "MA": 6662,
    "MAG": 6663,
    "LA": 6664,
    "IES": 6665,
    "Is": 6666,
    "Having": 6667,
    "Have": 6668,
    "Henry": 6669,
    "Eng": 6670,
    "Ex": 6671,
    "Con": 6672,
    "CI": 6673,
    "CE": 6674,
    "BILITY": 6675,
    "Besides": 6676,
    "AMAG": 6677,
    "All": 6678,
    "Ag": 6679,
    "AL": 6680,
    "!)": 6681,
    " icy": 6682,
    " zeal": 6683,
    " —": 6684,
    " -": 6685,
    " ——": 6686,
    "Agatha": 6687,
    "AMAGES": 6688,
    "CII": 6689,
    "Constant": 6690,
    "Constantin": 6691,
    "Constantinople": 6692,
    "Excellent": 6693,
    "English": 6694,
    "Paradise": 6695,
    "STE": 6696,
    "STEIN": 6697,
    "TRIB": 6698,
    "TRIBUT": 6699,
    "Upon": 6700,
    "collecting": 6701,
    "dreadful": 6702,
    "ebru": 6703,
    "ebruary": 6704,
    "hammad": 6705,
    "moving": 6706,
    "picture": 6707,
    "passing": 6708,
    "surpr": 6709,
    "shape": 6710,
    "situation": 6711,
    "virtue": 6712,
    "wanderer": 6713,
    "zzled": 6714,
    " teacher": 6715,
    " achieve": 6716,
    "invincible": 6717,
    "revoc": 6718,
    "revocably": 6719,
    "educated": 6720,
    " based": 6721,
    " folds": 6722,
    " fancies": 6723,
    " humour": 6724,
    " candour": 6725,
    " clapped": 6726,
    " circle": 6727,
    " dictate": 6728,
    " piercing": 6729,
    "arranged": 6730,
    " novelties": 6731,
    " eldest": 6732,
    " whirlwinds": 6733,
    " gales": 6734,
    " withdrew": 6735,
    "rieved": 6736,
    " dews": 6737,
    " consecrate": 6738,
    "lifeless": 6739,
    " suggest": 6740,
    " suggestion": 6741,
    " exasper": 6742,
    " exasperated": 6743,
    " softened": 6744,
    "respond": 6745,
    "respondence": 6746,
    " issue": 6747,
    "earnestly": 6748,
    "istributing": 6749,
    " split": 6750,
    " spoken": 6751,
    " sprung": 6752,
    " AGREE": 6753,
    "degrees": 6754,
    " ordinary": 6755,
    " organ": 6756,
    " organiz": 6757,
    " unsatisfied": 6758,
    " prosperity": 6759,
    " productions": 6760,
    " Miserable": 6761,
    " Servox": 6762,
    "astonishment": 6763,
    " chivalry": 6764,
    " Evian": 6765,
    " Except": 6766,
    " ensure": 6767,
    " ruled": 6768,
    "haviour": 6769,
    " Green": 6770,
    " expanded": 6771,
    " complaint": 6772,
    " complaints": 6773,
    " computer": 6774,
    " compensated": 6775,
    "subject": 6776,
    " quarters": 6777,
    " distrust": 6778,
    " poetry": 6779,
    " royalties": 6780,
    " important": 6781,
    " Italian": 6782,
    " reproach": 6783,
    " representations": 6784,
    " climate": 6785,
    " DISTRIBUT": 6786,
    " recompense": 6787,
    " commission": 6788,
    " indelible": 6789,
    "meanour": 6790,
    " trample": 6791,
    " beggar": 6792,
    " fluctuating": 6793,
    " systems": 6794,
    " identify": 6795,
    " Russia": 6796,
    " betray": 6797,
    " adventure": 6798,
    " acquirement": 6799,
    " affirmative": 6800,
    "companions": 6801,
    " persuading": 6802,
    "undertaking": 6803,
    " insatiable": 6804,
    " absorbed": 6805,
    " absolutely": 6806,
    " inquisitive": 6807,
    " inquirers": 6808,
    "prejudiced": 6809,
    "luxur": 6810,
    " embarkation": 6811,
    " picturesque": 6812,
    " await": 6813,
    "possession": 6814,
    "chemists": 6815,
    " benefactor": 6816,
    "occurrences": 6817,
    "sufficient": 6818,
    "commencement": 6819,
    " miraculous": 6820,
    "controllable": 6821,
    "THEU": 6822,
    "THEUS": 6823,
    " drunk": 6824,
    "instrument": 6825,
    " treachery": 6826,
    "ATI": 6827,
    "ATION": 6828,
    "Ancient": 6829,
    "Another": 6830,
    "beautiful": 6831,
    "coarse": 6832,
    "calm": 6833,
    "circumstances": 6834,
    "circumstance": 6835,
    "elevating": 6836,
    "famili": 6837,
    "family": 6838,
    "language": 6839,
    "oxy": 6840,
    "oxysm": 6841,
    "petual": 6842,
    "peaceful": 6843,
    "sym": 6844,
    "sympath": 6845,
    " treasures": 6846,
    " treasure": 6847,
    "reasoning": 6848,
    " moulded": 6849,
    " machinations": 6850,
    " massac": 6851,
    " saluted": 6852,
    " sacrilege": 6853,
    " sacrific": 6854,
    " sacrificed": 6855,
    " squalidness": 6856,
    " fanned": 6857,
    " fifteen": 6858,
    " fashioned": 6859,
    " Indeed": 6860,
    " cherished": 6861,
    " praise": 6862,
    " ineffectual": 6863,
    " inequ": 6864,
    " inequalities": 6865,
    " epo": 6866,
    " epoch": 6867,
    "severance": 6868,
    " assemblage": 6869,
    " delicate": 6870,
    " annihilation": 6871,
    " startled": 6872,
    " vacancy": 6873,
    " sending": 6874,
    " herbage": 6875,
    "quieted": 6876,
    "keys": 6877,
    " Among": 6878,
    " unjustly": 6879,
    "olesome": 6880,
    "oluntarily": 6881,
    "operations": 6882,
    "operation": 6883,
    " WARRANTIES": 6884,
    " WARRANTY": 6885,
    " enraged": 6886,
    " enrapt": 6887,
    " enraptured": 6888,
    " running": 6889,
    " routine": 6890,
    " route": 6891,
    "fulfilled": 6892,
    "fulfil": 6893,
    "fulfilment": 6894,
    " enticements": 6895,
    "—“_": 6896,
    "remembrance": 6897,
    "remembered": 6898,
    "conjectured": 6899,
    "conjecture": 6900,
    " Ork": 6901,
    " Orkney": 6902,
    " LIMITED": 6903,
    " LIC": 6904,
    " LICEN": 6905,
    " LICENSE": 6906,
    " grateful": 6907,
    " imprinted": 6908,
    " disclaimer": 6909,
    " repeated": 6910,
    " clasping": 6911,
    " Despair": 6912,
    " recollections": 6913,
    " North": 6914,
    " incredulous": 6915,
    " torrents": 6916,
    " illuminate": 6917,
    " subsisted": 6918,
    " legal": 6919,
    "younger": 6920,
    " calculated": 6921,
    " indicating": 6922,
    "attempted": 6923,
    " preparation": 6924,
    " difficulties": 6925,
    "provided": 6926,
    "distribution": 6927,
    " unfolding": 6928,
    " unfolded": 6929,
    "desponding": 6930,
    "intellect": 6931,
    "affording": 6932,
    "afforded": 6933,
    "regarding": 6934,
    " groaned": 6935,
    " forgotten": 6936,
    " errors": 6937,
    " errone": 6938,
    " simplest": 6939,
    " simpler": 6940,
    " forbidden": 6941,
    "benefact": 6942,
    " verdant": 6943,
    " verdure": 6944,
    "\n \n": 6945,
    " 90": 6946,
    "EMENT": 6947,
    "LIA": 6948,
    "causes": 6949,
    "caves": 6950,
    "favourite": 6951,
    "fatigue": 6952,
    "fatigable": 6953,
    "gentleness": 6954,
    "listen": 6955,
    "looking": 6956,
    "magistrate": 6957,
    "obtain": 6958,
    "pretation": 6959,
    "window": 6960,
    "inquiries": 6961,
    " mainland": 6962,
    " mainten": 6963,
    " maintenance": 6964,
    " schools": 6965,
    " floated": 6966,
    " colours": 6967,
    " colour": 6968,
    " costs": 6969,
    " damps": 6970,
    " pistols": 6971,
    " else": 6972,
    " eaten": 6973,
    "icipate": 6974,
    "strange": 6975,
    " rewarded": 6976,
    " ugliness": 6977,
    " debility": 6978,
    "additional": 6979,
    " starvation": 6980,
    " exceedingly": 6981,
    "deeply": 6982,
    " uneasiness": 6983,
    " Mano": 6984,
    " Manoir": 6985,
    " See": 6986,
    " chimney": 6987,
    " knees": 6988,
    " encouraged": 6989,
    " encourage": 6990,
    " radi": 6991,
    " radiance": 6992,
    " Greece": 6993,
    " Greek": 6994,
    " abandon": 6995,
    "beholding": 6996,
    " quietly": 6997,
    " accumulation": 6998,
    " attractive": 6999,
    " consciousness": 7000,
    " prejudiced": 7001,
    " prejudice": 7002,
    " poisoned": 7003,
    " closest": 7004,
    "explored": 7005,
    "extinguish": 7006,
    " confirmation": 7007,
    " sensitiveness": 7008,
    " detestable": 7009,
    " detestation": 7010,
    " southwards": 7011,
    " opinions": 7012,
    "control": 7013,
    " engagement": 7014,
    "considered": 7015,
    " complexion": 7016,
    "ognomy": 7017,
    "ognised": 7018,
    " available": 7019,
    " habitations": 7020,
    "pursuit": 7021,
    "pursue": 7022,
    " intellectual": 7023,
    " apprehens": 7024,
    " apprehensions": 7025,
    " laughing": 7026,
    " esteemed": 7027,
    " especial": 7028,
    "ING": 7029,
    "condition": 7030,
    "condem": 7031,
    "condu": 7032,
    "conducted": 7033,
    "delay": 7034,
    "generosity": 7035,
    "generally": 7036,
    "limbs": 7037,
    "marked": 7038,
    "madness": 7039,
    "minded": 7040,
    "opportunity": 7041,
    "opposite": 7042,
    "ritain": 7043,
    "silence": 7044,
    "silent": 7045,
    "sils": 7046,
    "solitude": 7047,
    "treme": 7048,
    " touching": 7049,
    " widest": 7050,
    " widow": 7051,
    " mien": 7052,
    " built": 7053,
    " build": 7054,
    " fervent": 7055,
    " customs": 7056,
    " cruell": 7057,
    " dedicated": 7058,
    " dedu": 7059,
    " palaces": 7060,
    " prize": 7061,
    " priest": 7062,
    " patient": 7063,
    " inconstant": 7064,
    " inconcei": 7065,
    " inconceiv": 7066,
    " inconceivable": 7067,
    " mysteries": 7068,
    "omena": 7069,
    " luxur": 7070,
    " linked": 7071,
    " beaten": 7072,
    " reverie": 7073,
    " measures": 7074,
    " gesture": 7075,
    " anticip": 7076,
    " anti": 7077,
    " shrill": 7078,
    " solicited": 7079,
    " solicit": 7080,
    "deprived": 7081,
    "depra": 7082,
    "departed": 7083,
    " prolonged": 7084,
    " combat": 7085,
    "ospit": 7086,
    " disposed": 7087,
    " dispel": 7088,
    " agonising": 7089,
    " Beloved": 7090,
    " enchanted": 7091,
    " PROM": 7092,
    " PROME": 7093,
    " PROMETHEUS": 7094,
    "auntless": 7095,
    " grande": 7096,
    " grandeur": 7097,
    " commanded": 7098,
    " dependent": 7099,
    " guardian": 7100,
    " guarded": 7101,
    " formats": 7102,
    "commun": 7103,
    "communic": 7104,
    "communication": 7105,
    " intervals": 7106,
    " carelessly": 7107,
    " advantages": 7108,
    " oppression": 7109,
    "previously": 7110,
    " tempor": 7111,
    " temporary": 7112,
    "semblance": 7113,
    "reflection": 7114,
    " erad": 7115,
    "ART": 7116,
    "affections": 7117,
    "bodings": 7118,
    "cotch": 7119,
    "evening": 7120,
    "guilt": 7121,
    "himself": 7122,
    "iverted": 7123,
    "ivering": 7124,
    "observing": 7125,
    "susceptible": 7126,
    "watch": 7127,
    " type": 7128,
    " tyr": 7129,
    " finger": 7130,
    " film": 7131,
    " hungry": 7132,
    " postp": 7133,
    " practically": 7134,
    " practice": 7135,
    " include": 7136,
    " inclined": 7137,
    " inexhaust": 7138,
    " inexhaustible": 7139,
    " inexper": 7140,
    " lowest": 7141,
    "studied": 7142,
    "studies": 7143,
    " whisper": 7144,
    " usually": 7145,
    " defend": 7146,
    " deeds": 7147,
    " consequently": 7148,
    " exercised": 7149,
    " ventured": 7150,
    "embers": 7151,
    " Ange": 7152,
    " apprehend": 7153,
    " apparatus": 7154,
    " Everywhere": 7155,
    " Everything": 7156,
    " envy": 7157,
    " encountering": 7158,
    "oftened": 7159,
    "suffered": 7160,
    " contentment": 7161,
    " results": 7162,
    " precaution": 7163,
    " precision": 7164,
    " roads": 7165,
    " instructed": 7166,
    " instruct": 7167,
    " strangled": 7168,
    " despondence": 7169,
    " crowded": 7170,
    " accepted": 7171,
    " secondary": 7172,
    " introduction": 7173,
    " intelligence": 7174,
    "avourable": 7175,
    "expressible": 7176,
    "expression": 7177,
    " anxiously": 7178,
    " voluntary": 7179,
    " footsteps": 7180,
    " temperature": 7181,
    "occupations": 7182,
    "occupation": 7183,
    " perpetually": 7184,
    "determination": 7185,
    "Archangel": 7186,
    "Arab": 7187,
    "Arabian": 7188,
    "does": 7189,
    "flowing": 7190,
    "joined": 7191,
    "join": 7192,
    "labour": 7193,
    "minutely": 7194,
    "purp": 7195,
    "purpose": 7196,
    "rades": 7197,
    " slaughter": 7198,
    " slave": 7199,
    " dragged": 7200,
    "annel": 7201,
    " injuries": 7202,
    " lectures": 7203,
    " lieuten": 7204,
    " lieutenant": 7205,
    " conjecture": 7206,
    " exhaustion": 7207,
    " varied": 7208,
    "delighted": 7209,
    " disgrace": 7210,
    " distinctly": 7211,
    " gladness": 7212,
    " indulgence": 7213,
    " indulging": 7214,
    " indulged": 7215,
    " indulge": 7216,
    "gratul": 7217,
    "gratulatory": 7218,
    " majesty": 7219,
    "RECT": 7220,
    "REA": 7221,
    "REACH": 7222,
    "alys": 7223,
    "crim": 7224,
    "crimin": 7225,
    "create": 7226,
    "creation": 7227,
    "murdered": 7228,
    "pleased": 7229,
    " wounds": 7230,
    " mildness": 7231,
    " market": 7232,
    " oriental": 7233,
    " flying": 7234,
    " furious": 7235,
    " furs": 7236,
    " domain": 7237,
    " domin": 7238,
    " intens": 7239,
    " intensity": 7240,
    " realise": 7241,
    "sequent": 7242,
    " undis": 7243,
    " undiscovered": 7244,
    " weakened": 7245,
    " weakness": 7246,
    " angelic": 7247,
    " connection": 7248,
    " value": 7249,
    "indsor": 7250,
    "themselves": 7251,
    " While": 7252,
    " neglect": 7253,
    " rambling": 7254,
    " ramble": 7255,
    " performing": 7256,
    " remarkable": 7257,
    " attentive": 7258,
    "confirmed": 7259,
    "confused": 7260,
    "fellows": 7261,
    " recording": 7262,
    " earnestness": 7263,
    " particular": 7264,
    " confessor": 7265,
    " Rhone": 7266,
    " directly": 7267,
    " respects": 7268,
    " keeping": 7269,
    " educated": 7270,
    "RAN": 7271,
    "RANK": 7272,
    "RANKEN": 7273,
    "RANKENSTEIN": 7274,
    "nificence": 7275,
    "preserve": 7276,
    "presented": 7277,
    "presence": 7278,
    "present": 7279,
    "influence": 7280,
    "inferi": 7281,
    " muscles": 7282,
    " muscle": 7283,
    " mournfully": 7284,
    " brightness": 7285,
    " fondness": 7286,
    " fondly": 7287,
    " hurry": 7288,
    " publicly": 7289,
    " heroism": 7290,
    " heroic": 7291,
    "imental": 7292,
    " greed": 7293,
    " greedily": 7294,
    " grey": 7295,
    " sustenance": 7296,
    " sustained": 7297,
    "endeavouring": 7298,
    " proclaim": 7299,
    " proceeding": 7300,
    " arranged": 7301,
    " arrange": 7302,
    " overwhelm": 7303,
    " printed": 7304,
    " approaching": 7305,
    " completely": 7306,
    " vegetables": 7307,
    "ERN": 7308,
    "troubled": 7309,
    "reflected": 7310,
    "regular": 7311,
    " wisdom": 7312,
    " signification": 7313,
    " signal": 7314,
    " breez": 7315,
    " breezes": 7316,
    " harbour": 7317,
    " ceremony": 7318,
    " cele": 7319,
    " celebr": 7320,
    " celebrated": 7321,
    "struck": 7322,
    "struct": 7323,
    "sembling": 7324,
    " forgetfulness": 7325,
    "aintly": 7326,
    " streamed": 7327,
    " perpendicular": 7328,
    " retreated": 7329,
    " tormenting": 7330,
    " families": 7331,
    "Although": 7332,
    "affled": 7333,
    "event": 7334,
    "justified": 7335,
    "judges": 7336,
    "occasion": 7337,
    "oints": 7338,
    "scenes": 7339,
    "scene": 7340,
    "www": 7341,
    " meditate": 7342,
    " medic": 7343,
    " mathe": 7344,
    " mathematics": 7345,
    " mutiny": 7346,
    " mutable": 7347,
    " pretend": 7348,
    " feeble": 7349,
    " suspended": 7350,
    " blessings": 7351,
    " companionship": 7352,
    " northwards": 7353,
    " conducting": 7354,
    " communicating": 7355,
    " communicate": 7356,
    " communication": 7357,
    " honourable": 7358,
    "checked": 7359,
    "creator": 7360,
    "created": 7361,
    "greater": 7362,
    "prominently": 7363,
    " mentioning": 7364,
    " singularly": 7365,
    " burned": 7366,
    " foli": 7367,
    " foliage": 7368,
    " finally": 7369,
    " finish": 7370,
    "animated": 7371,
    " grapp": 7372,
    "throw": 7373,
    " steady": 7374,
    " stepped": 7375,
    " THAT": 7376,
    " volum": 7377,
    " volumes": 7378,
    " explore": 7379,
    " blinded": 7380,
    " gratification": 7381,
    " gratified": 7382,
    "discovery": 7383,
    " hideousness": 7384,
    "luenced": 7385,
    "lude": 7386,
    " tenderest": 7387,
    " involuntarily": 7388,
    " invul": 7389,
    " invuln": 7390,
    " invulnerable": 7391,
    "secution": 7392,
    "secret": 7393,
    " associate": 7394,
    " Through": 7395,
    " Think": 7396,
    " Those": 7397,
    " Thom": 7398,
    " Thomas": 7399,
    " Turkey": 7400,
    " joint": 7401,
    "returning": 7402,
    " obliv": 7403,
    " oblivion": 7404,
    " accorded": 7405,
    " precipitate": 7406,
    " precipice": 7407,
    " precipit": 7408,
    " precipitous": 7409,
    " Arabic": 7410,
    " travellers": 7411,
    " concealing": 7412,
    "hearted": 7413,
    "hearts": 7414,
    " malignant": 7415,
    " situations": 7416,
    " banish": 7417,
    " business": 7418,
    " coarse": 7419,
    " coars": 7420,
    " delirium": 7421,
    " unfavourable": 7422,
    " unfinished": 7423,
    " unfair": 7424,
    " unfit": 7425,
    " prophe": 7426,
    " prophetic": 7427,
    " prospects": 7428,
    " descends": 7429,
    " articulate": 7430,
    " artic": 7431,
    " arts": 7432,
    " pointing": 7433,
    " communion": 7434,
    " opening": 7435,
    " solemnis": 7436,
    " solemnisation": 7437,
    " keen": 7438,
    "preted": 7439,
    " tales": 7440,
    " astound": 7441,
    " slop": 7442,
    " sloping": 7443,
    " breast": 7444,
    " donate": 7445,
    " example": 7446,
    " examination": 7447,
    " specified": 7448,
    "accustomed": 7449,
    "accents": 7450,
    " imminent": 7451,
    " immured": 7452,
    " prevailed": 7453,
    " closely": 7454,
    " cheerfully": 7455,
    " cheering": 7456,
    "ogue": 7457,
    "ogra": 7458,
    "ograp": 7459,
    "ography": 7460,
    "usement": 7461,
    " equalled": 7462,
    " equals": 7463,
    "cellence": 7464,
    " memorable": 7465,
    " meanwhile": 7466,
    " sails": 7467,
    "society": 7468,
    " rapidity": 7469,
    " watery": 7470,
    " writers": 7471,
    " studying": 7472,
    "escaped": 7473,
    "distinguish": 7474,
    "distant": 7475,
    "ugent": 7476,
    "recollect": 7477,
    "recovered": 7478,
    "recked": 7479,
    "recate": 7480,
    " warmer": 7481,
    " swallowed": 7482,
    " swim": 7483,
    " sickbed": 7484,
    " hidden": 7485,
    " correspondence": 7486,
    " corre": 7487,
    "ormity": 7488,
    " limitation": 7489,
    " limited": 7490,
    " revolution": 7491,
    " revisit": 7492,
    " generations": 7493,
    "ractic": 7494,
    " speaking": 7495,
    " attempts": 7496,
    "whatsoever": 7497,
    " cloudy": 7498,
    " passionate": 7499,
    "courage": 7500,
    "court": 7501,
    "gradually": 7502,
    " wildness": 7503,
    " insisted": 7504,
    " insens": 7505,
    " insensible": 7506,
    " eagle": 7507,
    " reasonably": 7508,
    " reasonable": 7509,
    " reasoning": 7510,
    "impressed": 7511,
    "imposs": 7512,
    "impossible": 7513,
    " conversations": 7514,
    " conversing": 7515,
    "elled": 7516,
    "merchant": 7517,
    "production": 7518,
    "procure": 7519,
    "atives": 7520,
    " barn": 7521,
    " fringed": 7522,
    " falling": 7523,
    " caress": 7524,
    " caresses": 7525,
    " carriage": 7526,
    " clearly": 7527,
    "ompose": 7528,
    " eastern": 7529,
    " progn": 7530,
    " prognost": 7531,
    " minister": 7532,
    " sleeping": 7533,
    " brooded": 7534,
    " broad": 7535,
    " broo": 7536,
    " brook": 7537,
    " highlands": 7538,
    " paradise": 7539,
    " youthful": 7540,
    " animate": 7541,
    "choed": 7542,
    " employe": 7543,
    " persuasions": 7544,
    " differed": 7545,
    " Uncle": 7546,
    " Unless": 7547,
    " 24": 7548,
    " 23": 7549,
    " 22": 7550,
    " 21": 7551,
    " irregular": 7552,
    " irrevocably": 7553,
    " irrad": 7554,
    " wishing": 7555,
    " magnificence": 7556,
    " magic": 7557,
    " magn": 7558,
    " horse": 7559,
    " horseb": 7560,
    " horseback": 7561,
    " capac": 7562,
    " capr": 7563,
    " circumstant": 7564,
    " circumstantial": 7565,
    "aspect": 7566,
    " electronically": 7567,
    " usefulness": 7568,
    "ternate": 7569,
    "eakable": 7570,
    " Albertus": 7571,
    " Alp": 7572,
    " Alpine": 7573,
    " sufficiently": 7574,
    " purpos": 7575,
    " purposes": 7576,
    " purport": 7577,
    " murderous": 7578,
    " fatality": 7579,
    " hasty": 7580,
    " lessened": 7581,
    " lesson": 7582,
    " discovering": 7583,
    " seeking": 7584,
    " calmness": 7585,
    " calmer": 7586,
    "kindled": 7587,
    " modified": 7588,
    " moder": 7589,
    " moderation": 7590,
    " skiff": 7591,
    " skies": 7592,
    " skin": 7593,
    " boast": 7594,
    "iterran": 7595,
    "iterranean": 7596,
    "arrowing": 7597,
    "arrant": 7598,
    "ifications": 7599,
    "rawling": 7600,
    " engaging": 7601,
    "cludes": 7602,
    " surrounding": 7603,
    " extremity": 7604,
    " extremest": 7605,
    "companied": 7606,
    "composed": 7607,
    "comply": 7608,
    " personally": 7609,
    "knowing": 7610,
    " affright": 7611,
    "rifts": 7612,
    "rifling": 7613,
    "rified": 7614,
    " provisions": 7615,
    " provision": 7616,
    "ielded": 7617,
    "particul": 7618,
    "particularly": 7619,
    "parti": 7620,
    "partiality": 7621,
    "willingly": 7622,
    "interrupted": 7623,
    "intern": 7624,
    "repugnance": 7625,
    "reposed": 7626,
    "replied": 7627,
    " settled": 7628,
    " saying": 7629,
    " thousands": 7630,
    " decision": 7631,
    " decayed": 7632,
    " playmate": 7633,
    " plaything": 7634,
    " playfully": 7635,
    " plays": 7636,
    " acquaint": 7637,
    " acquitted": 7638,
    "nightly": 7639,
    "worthy": 7640,
    "worked": 7641,
    "worth": 7642,
    " activity": 7643,
    " actually": 7644,
    " actual": 7645,
    " fully": 7646,
    " Asia": 7647,
    " rugged": 7648,
    " ruins": 7649,
    "countenances": 7650,
    "ounced": 7651,
    " freely": 7652,
    " requisition": 7653,
    " requested": 7654,
    " profici": 7655,
    " proficiency": 7656,
    " profits": 7657,
    " profited": 7658,
    " expressions": 7659,
    " terrified": 7660,
    " terri": 7661,
    " terribly": 7662,
    "attached": 7663,
    " thinking": 7664,
    " indignant": 7665,
    " landing": 7666,
    " advice": 7667,
    "contented": 7668,
    "contain": 7669,
    "ibilities": 7670,
    "engaged": 7671,
    " carefully": 7672,
    " laying": 7673,
    " listener": 7674,
    " hereafter": 7675,
    " fellows": 7676,
    " airy": 7677,
    "riefly": 7678,
    " approve": 7679,
    " approb": 7680,
    " approbation": 7681,
    "lectricity": 7682,
    "avid": 7683,
    "phrase": 7684,
    " marrying": 7685,
    " Archangel": 7686,
    " Arth": 7687,
    " Arthur": 7688,
    " charity": 7689,
    " journeying": 7690,
    "anguinary": 7691,
    "ertaining": 7692,
    "active": 7693,
    "cerned": 7694,
    "cerne": 7695,
    "cessarily": 7696,
    "easily": 7697,
    " boundless": 7698,
    " bounding": 7699,
    " offering": 7700,
    " office": 7701,
    " offered": 7702,
    " offers": 7703,
    " calam": 7704,
    " intently": 7705,
    " intr": 7706,
    " intrusion": 7707,
    " lasted": 7708,
    " enjoying": 7709,
    " enjoys": 7710,
    " sympathising": 7711,
    "\n        ": 7712,
    "\n    \n": 7713,
    "afety": 7714,
    "ailing": 7715,
    "license": 7716,
    "lication": 7717,
    " placing": 7718,
    " earthqu": 7719,
    " earthquake": 7720,
    "cribe": 7721,
    "cript": 7722,
    "sworn": 7723,
    "swear": 7724,
    " influenced": 7725,
    " influence": 7726,
    "ician": 7727,
    " obscured": 7728,
    " observing": 7729,
    " souls": 7730,
    "disciple": 7731,
    "dispositions": 7732,
    "disposition": 7733,
    "dismis": 7734,
    "disapp": 7735,
    "disappointment": 7736,
    "displ": 7737,
    "izzy": 7738,
    " crevice": 7739,
    " creations": 7740,
    " prometheus": 7741,
    " promises": 7742,
    " promoting": 7743,
    " laborious": 7744,
    " labou": 7745,
    " labourers": 7746,
    " devotion": 7747,
    " subsequent": 7748,
    " Urged": 7749,
    " Use": 7750,
    " wrink": 7751,
    " wrinkled": 7752,
    " illustrious": 7753,
    " illust": 7754,
    "awakened": 7755,
    " darkened": 7756,
    " existing": 7757,
    " Whence": 7758,
    " momentarily": 7759,
    " momentary": 7760,
    " sinks": 7761,
    " sins": 7762,
    " degr": 7763,
    " degraded": 7764,
    " Well": 7765,
    " Roy": 7766,
    " Royalty": 7767,
    " Rom": 7768,
    " Res": 7769,
    " Red": 7770,
    " Re": 7771,
    " interpreted": 7772,
    " interpretation": 7773,
    " interview": 7774,
    " interrupt": 7775,
    " interment": 7776,
    " interven": 7777,
    " utility": 7778,
    " folly": 7779,
    " registered": 7780,
    " regular": 7781,
    " relatives": 7782,
    " relative": 7783,
    " deepest": 7784,
    " despairing": 7785,
    " idleness": 7786,
    "joyed": 7787,
    "lfare": 7788,
    " curling": 7789,
    "ributions": 7790,
    "ribute": 7791,
    " imaginary": 7792,
    " turnkeys": 7793,
    " synd": 7794,
    " famine": 7795,
    " hardy": 7796,
    "stery": 7797,
    "stern": 7798,
    "sternation": 7799,
    "acket": 7800,
    " copied": 7801,
    " cope": 7802,
    " northe": 7803,
    " northeast": 7804,
    "intentions": 7805,
    "intage": 7806,
    "intend": 7807,
    "rewed": 7808,
    " traverse": 7809,
    " traces": 7810,
    " satiated": 7811,
    " flashes": 7812,
    " flushed": 7813,
    " flames": 7814,
    " flung": 7815,
    " flower": 7816,
    " flour": 7817,
    " flit": 7818,
    " torments": 7819,
    " torp": 7820,
    " torpor": 7821,
    "assassin": 7822,
    " incess": 7823,
    " incessantly": 7824,
    " incle": 7825,
    " inclemency": 7826,
    " inco": 7827,
    " incohere": 7828,
    " incoherent": 7829,
    " begun": 7830,
    " supposition": 7831,
    " supposing": 7832,
    " supplied": 7833,
    "dening": 7834,
    " menaced": 7835,
    " menaces": 7836,
    " believing": 7837,
    "ults": 7838,
    "ivors": 7839,
    "answ": 7840,
    " excite": 7841,
    "pronoun": 7842,
    "prison": 7843,
    " windings": 7844,
    " mole": 7845,
    "armony": 7846,
    " seeming": 7847,
    "hatred": 7848,
    " lighter": 7849,
    " lights": 7850,
    "compl": 7851,
    "coming": 7852,
    "overh": 7853,
    " trouble": 7854,
    " trade": 7855,
    "restored": 7856,
    " outside": 7857,
    " outra": 7858,
    " critical": 7859,
    "lixir": 7860,
    " extinct": 7861,
    " extract": 7862,
    " extended": 7863,
    "noble": 7864,
    "noon": 7865,
    "without": 7866,
    " cheat": 7867,
    " beauties": 7868,
    " visage": 7869,
    " appearing": 7870,
    "apparent": 7871,
    "apped": 7872,
    "appre": 7873,
    "appe": 7874,
    " despised": 7875,
    " despise": 7876,
    "fortune": 7877,
    "meantime": 7878,
    "means": 7879,
    "meas": 7880,
    " affecting": 7881,
    " throwing": 7882,
    "mankind": 7883,
    " sensibly": 7884,
    " indefatigable": 7885,
    " emerg": 7886,
    " empt": 7887,
    " empty": 7888,
    " emp": 7889,
    " Nugent": 7890,
    "order": 7891,
    " pleasurable": 7892,
    " confident": 7893,
    " confines": 7894,
    " confine": 7895,
    " sunset": 7896,
    " Shell": 7897,
    " Shelley": 7898,
    "ulling": 7899,
    " surpassing": 7900,
    " surface": 7901,
    " guiding": 7902,
    " guessed": 7903,
    " guise": 7904,
    " stillness": 7905,
    " 16": 7906,
    " 15": 7907,
    " 14": 7908,
    " loathed": 7909,
    " loaded": 7910,
    " loaf": 7911,
    " lovers": 7912,
    " load": 7913,
    " loit": 7914,
    " loitered": 7915,
    " loc": 7916,
    " kindly": 7917,
    " kinds": 7918,
    "owned": 7919,
    "erms": 7920,
    " handw": 7921,
    " handwr": 7922,
    " handwriting": 7923,
    " passes": 7924,
    " afternoon": 7925,
    " occasions": 7926,
    " brink": 7927,
    " brid": 7928,
    " brut": 7929,
    " brutality": 7930,
    " fierce": 7931,
    " instinct": 7932,
    " instruction": 7933,
    " instances": 7934,
    " deposition": 7935,
    " deposed": 7936,
    " depos": 7937,
    "mystery": 7938,
    "renched": 7939,
    "shone": 7940,
    "short": 7941,
    "shut": 7942,
    "extreme": 7943,
    "exper": 7944,
    "exh": 7945,
    "speakable": 7946,
    "spent": 7947,
    "spo": 7948,
    " murm": 7949,
    " wherefore": 7950,
    " wherever": 7951,
    " recollected": 7952,
    " recover": 7953,
    "teeth": 7954,
    "tell": 7955,
    " purch": 7956,
    " deaths": 7957,
    " sufferer": 7958,
    " suffo": 7959,
    " suffocated": 7960,
    "apes": 7961,
    " working": 7962,
    "efect": 7963,
    "ertile": 7964,
    " prayed": 7965,
    " print": 7966,
    " prud": 7967,
    " price": 7968,
    " DAMAGES": 7969,
    " Donations": 7970,
    " Doth": 7971,
    " Dark": 7972,
    " Darkness": 7973,
    " Dep": 7974,
    " Dear": 7975,
    "clothed": 7976,
    "clined": 7977,
    " heartfelt": 7978,
    " hearts": 7979,
    " restrain": 7980,
    " restrained": 7981,
    " resting": 7982,
    " restr": 7983,
    " restrict": 7984,
    " restrictions": 7985,
    "ignor": 7986,
    " hopeless": 7987,
    "ension": 7988,
    "enses": 7989,
    " returns": 7990,
    " repaired": 7991,
    " repulsive": 7992,
    " reported": 7993,
    " repair": 7994,
    "ceipt": 7995,
    "ltered": 7996,
    " discourse": 7997,
    " disclosed": 7998,
    "lessly": 7999,
    " impelled": 8000,
    " impotent": 8001,
    " imposed": 8002,
    " impass": 8003,
    " imped": 8004,
    " rolled": 8005,
    " roar": 8006,
    " roarings": 8007,
    " rob": 8008,
    " ragged": 8009,
    " raven": 8010,
    " howl": 8011,
    "vessel": 8012,
    " founded": 8013,
    " grow": 8014,
    " growth": 8015,
    " preserved": 8016,
    " presents": 8017,
    " preserv": 8018,
    " preservation": 8019,
    "ictory": 8020,
    " knowing": 8021,
    " fairer": 8022,
    " precious": 8023,
    " Like": 8024,
    " Lives": 8025,
    " Life": 8026,
    " Lost": 8027,
    " List": 8028,
    " Listen": 8029,
    " Lou": 8030,
    " Louis": 8031,
    " Lu": 8032,
    " Lucerne": 8033,
    " La": 8034,
    "older": 8035,
    "tensive": 8036,
    " distinction": 8037,
    "ckets": 8038,
    "cking": 8039,
    " natures": 8040,
    " refrain": 8041,
    " refined": 8042,
    "lobe": 8043,
    "loath": 8044,
    "load": 8045,
    " everything": 8046,
    "adequate": 8047,
    " Ocean": 8048,
    " Over": 8049,
    " Oct": 8050,
    " Octo": 8051,
    " October": 8052,
    "wholesome": 8053,
    "white": 8054,
    "why": 8055,
    " happily": 8056,
    " happen": 8057,
    "ferences": 8058,
    "convalescence": 8059,
    "constant": 8060,
    "conceive": 8061,
    "conv": 8062,
    "convinced": 8063,
    " plunged": 8064,
    " plants": 8065,
    " plains": 8066,
    "utensils": 8067,
    "uteness": 8068,
    " attacked": 8069,
    " attitude": 8070,
    " attain": 8071,
    "ollst": 8072,
    "ollstone": 8073,
    "ollstonec": 8074,
    "ollstonecra": 8075,
    "ollstonecraft": 8076,
    " resources": 8077,
    " resigned": 8078,
    " resumed": 8079,
    " reside": 8080,
    " resist": 8081,
    "remember": 8082,
    "reme": 8083,
    " scaffold": 8084,
    " scared": 8085,
    " scents": 8086,
    "plored": 8087,
    "plans": 8088,
    "plan": 8089,
    "permitted": 8090,
    "performed": 8091,
    "perations": 8092,
    " adversity": 8093,
    " adduced": 8094,
    " adj": 8095,
    " owns": 8096,
    " overthrow": 8097,
    " overflowed": 8098,
    " overt": 8099,
    " overp": 8100,
    " accursed": 8101,
    " accidents": 8102,
    " containing": 8103,
    " contributed": 8104,
    " contact": 8105,
    " friendless": 8106,
    " quenched": 8107,
    " quality": 8108,
    " quite": 8109,
    " blunt": 8110,
    " blam": 8111,
    " obed": 8112,
    " obv": 8113,
    " obvious": 8114,
    " retro": 8115,
    "forter": 8116,
    "force": 8117,
    "forg": 8118,
    "forgot": 8119,
    "forgotten": 8120,
    "forb": 8121,
    " thanks": 8122,
    " endless": 8123,
    " endow": 8124,
    " ended": 8125,
    "belief": 8126,
    "blem": 8127,
    "odern": 8128,
    "ods": 8129,
    "otherwise": 8130,
    " anywhere": 8131,
    "—.”": 8132,
    " Cumberland": 8133,
    " Comp": 8134,
    " Creat": 8135,
    " Creator": 8136,
    " Com": 8137,
    " Como": 8138,
    " CO": 8139,
    " CONT": 8140,
    "ruit": 8141,
    "rue": 8142,
    "aker": 8143,
    " entran": 8144,
    " feels": 8145,
    " ability": 8146,
    "imely": 8147,
    "success": 8148,
    "subs": 8149,
    "sull": 8150,
    "suc": 8151,
    "succeeded": 8152,
    " compared": 8153,
    " expenses": 8154,
    " expiration": 8155,
    " expan": 8156,
    " expanse": 8157,
    " exper": 8158,
    "retriev": 8159,
    " shoulder": 8160,
    "udder": 8161,
    " Petersburgh": 8162,
    " Peace": 8163,
    " Pers": 8164,
    " Persian": 8165,
    " Pro": 8166,
    " PU": 8167,
    " PG": 8168,
    "irect": 8169,
    "ieu": 8170,
    " remarked": 8171,
    " reminds": 8172,
    " remote": 8173,
    " remot": 8174,
    " remo": 8175,
    "cili": 8176,
    "ciliating": 8177,
    "ciation": 8178,
    "cial": 8179,
    " FRANKENSTEIN": 8180,
    " Fortunately": 8181,
    " Farewell": 8182,
    " FU": 8183,
    " FUL": 8184,
    " FULL": 8185,
    "nowy": 8186,
    " Germany": 8187,
    " Good": 8188,
    " perseverance": 8189,
    " persecutor": 8190,
    " pert": 8191,
    " “_": 8192,
    "lapse": 8193,
    "laited": 8194,
    "jection": 8195,
    "necessarily": 8196,
    "neg": 8197,
    "neglected": 8198,
    "onely": 8199,
    " dozen": 8200,
    " rudder": 8201,
    " rational": 8202,
    " rush": 8203,
    " rowing": 8204,
    " rouse": 8205,
    " rough": 8206,
    " rus": 8207,
    " rushing": 8208,
    " rid": 8209,
    " nois": 8210,
    " enormity": 8211,
    " enjoined": 8212,
    " energ": 8213,
    " enqu": 8214,
    " enquired": 8215,
    "urnit": 8216,
    "urniture": 8217,
    " Ever": 8218,
    " EX": 8219,
    " EB": 8220,
    " EBO": 8221,
    " EBOO": 8222,
    " EBOOK": 8223,
    "arer": 8224,
    "arel": 8225,
    " BREACH": 8226,
    " Britain": 8227,
    " BE": 8228,
    " immeas": 8229,
    "ineffectual": 8230,
    "inex": 8231,
    " arrest": 8232,
    " arch": 8233,
    " arter": 8234,
    " arr": 8235,
    " arrow": 8236,
    " shep": 8237,
    " shepher": 8238,
    " shepherd": 8239,
    " willow": 8240,
    " agit": 8241,
    " agitates": 8242,
    " upright": 8243,
    " disease": 8244,
    " dispersed": 8245,
    " disquis": 8246,
    " dislike": 8247,
    " dispe": 8248,
    " Wollstonecraft": 8249,
    " West": 8250,
    " Westm": 8251,
    " Westmor": 8252,
    " Westmorland": 8253,
    "oster": 8254,
    " desiring": 8255,
    " desper": 8256,
    " desol": 8257,
    " desolated": 8258,
    " appertaining": 8259,
    " kill": 8260,
    " ample": 8261,
    " amount": 8262,
    " amounted": 8263,
    " chilled": 8264,
    " choice": 8265,
    " chink": 8266,
    " chord": 8267,
    " chained": 8268,
    " choo": 8269,
    " choose": 8270,
    " cham": 8271,
    " chamo": 8272,
    " chamois": 8273,
    " chain": 8274,
    " chur": 8275,
    " church": 8276,
    " cho": 8277,
    "ortations": 8278,
    "ccordingly": 8279,
    "ccour": 8280,
    "open": 8281,
    "agitation": 8282,
    "ague": 8283,
    "agree": 8284,
    "agr": 8285,
    "unciation": 8286,
    "unwholesome": 8287,
    "university": 8288,
    "unctions": 8289,
    "unlike": 8290,
    "unhappy": 8291,
    "unish": 8292,
    "union": 8293,
    "veni": 8294,
    " comforter": 8295,
    " comrades": 8296,
    " coming": 8297,
    "ranqu": 8298,
    "ranquil": 8299,
    "rann": 8300,
    " Scotch": 8301,
    " Section": 8302,
    " Save": 8303,
    " Sister": 8304,
    " Sea": 8305,
    " Sat": 8306,
    " Satan": 8307,
    " So": 8308,
    " Miss": 8309,
    " Many": 8310,
    " Mary": 8311,
    " Most": 8312,
    " More": 8313,
    " Main": 8314,
    " Mainz": 8315,
    " Mar": 8316,
    " Mariner": 8317,
    " Men": 8318,
    " Med": 8319,
    " Mediterranean": 8320,
    " Mu": 8321,
    " Muhammad": 8322,
    " MO": 8323,
    " MOD": 8324,
    " MODERN": 8325,
    "ffing": 8326,
    "usation": 8327,
    "usk": 8328,
    " prosecution": 8329,
    "olutions": 8330,
    "olit": 8331,
    " manif": 8332,
    " Had": 8333,
    " allude": 8334,
    " allusion": 8335,
    " allured": 8336,
    "together": 8337,
    "told": 8338,
    " unspeakable": 8339,
    " unexplored": 8340,
    " unfulfilled": 8341,
    " unprejudiced": 8342,
    " uncouth": 8343,
    " unremitting": 8344,
    " unconscious": 8345,
    " unexpected": 8346,
    " unbounded": 8347,
    " unearthly": 8348,
    " unprotected": 8349,
    " unrestrained": 8350,
    " unwilling": 8351,
    " unperceived": 8352,
    " unfeeling": 8353,
    " une": 8354,
    "ustrous": 8355,
    " ordered": 8356,
    " orb": 8357,
    "ummy": 8358,
    "umb": 8359,
    "deem": 8360,
    " sag": 8361,
    " sagacity": 8362,
    "articulate": 8363,
    "eloved": 8364,
    " Accordingly": 8365,
    " Austri": 8366,
    " August": 8367,
    " Are": 8368,
    " Ad": 8369,
    " AS": 8370,
    " ASCII": 8371,
    " whenever": 8372,
    " whence": 8373,
    "accompanied": 8374,
    "acks": 8375,
    " speaks": 8376,
    " spurn": 8377,
    "keeping": 8378,
    " alternate": 8379,
    " alchemists": 8380,
    "rapid": 8381,
    "raction": 8382,
    "raves": 8383,
    "rawn": 8384,
    "reath": 8385,
    "endured": 8386,
    "emper": 8387,
    "”—": 8388,
    "earli": 8389,
    "earliest": 8390,
    "indignation": 8391,
    "indul": 8392,
    "ateful": 8393,
    "atever": 8394,
    " isle": 8395,
    "quitted": 8396,
    "quick": 8397,
    "quite": 8398,
    "quered": 8399,
    "quer": 8400,
    "residence": 8401,
    "ards": 8402,
    " sockets": 8403,
    " sobbed": 8404,
    " soaring": 8405,
    "allow": 8406,
    "alle": 8407,
    "henomena": 8408,
    " separated": 8409,
    " seven": 8410,
    " seal": 8411,
    " sex": 8412,
    "ulating": 8413,
    "ulty": 8414,
    "ulus": 8415,
    "ulp": 8416,
    " shapes": 8417,
    " shrink": 8418,
    " shaded": 8419,
    " shout": 8420,
    " shame": 8421,
    " shr": 8422,
    " atmosphere": 8423,
    " vivacity": 8424,
    " vicious": 8425,
    " vices": 8426,
    " vowed": 8427,
    "ilitated": 8428,
    " excellence": 8429,
    " excluded": 8430,
    " exceeded": 8431,
    " Terms": 8432,
    " Tell": 8433,
    " Take": 8434,
    " TO": 8435,
    "andering": 8436,
    "andy": 8437,
    " succour": 8438,
    " sup": 8439,
    " supreme": 8440,
    " feature": 8441,
    "changing": 8442,
    "chained": 8443,
    "ifference": 8444,
    "ifle": 8445,
    " stifle": 8446,
    " strewed": 8447,
    " stayed": 8448,
    " stony": 8449,
    " stone": 8450,
    " stage": 8451,
    " stag": 8452,
    " station": 8453,
    " stri": 8454,
    " stim": 8455,
    " sty": 8456,
    " conquered": 8457,
    " conciliating": 8458,
    " consternation": 8459,
    " congratulatory": 8460,
    " convenience": 8461,
    " conclusions": 8462,
    " conversed": 8463,
    " conc": 8464,
    "amusement": 8465,
    "ambles": 8466,
    "terdam": 8467,
    "terable": 8468,
    " anew": 8469,
    "abhorred": 8470,
    "abode": 8471,
    "about": 8472,
    "abol": 8473,
    "abs": 8474,
    "absence": 8475,
    "thirst": 8476,
    "adows": 8477,
    "ades": 8478,
    "ader": 8479,
    " welfare": 8480,
    " weigh": 8481,
    " weary": 8482,
    " wear": 8483,
    "herited": 8484,
    " dejection": 8485,
    " deplored": 8486,
    " demeanour": 8487,
    " deceit": 8488,
    " debar": 8489,
    " deal": 8490,
    " deer": 8491,
    " ascribed": 8492,
    " ascertain": 8493,
    " asleep": 8494,
    " ashes": 8495,
    "rival": 8496,
    "riet": 8497,
    "rietary": 8498,
    " forces": 8499,
    " fors": 8500,
    "idings": 8501,
    "idel": 8502,
    "ids": 8503,
    "etween": 8504,
    " withstand": 8505,
    " godlike": 8506,
    " gushed": 8507,
    " gently": 8508,
    " gold": 8509,
    " gather": 8510,
    " gun": 8511,
    " gar": 8512,
    " garb": 8513,
    " ge": 8514,
    " geography": 8515,
    "alked": 8516,
    "irksome": 8517,
    "iron": 8518,
    "ctive": 8519,
    "imately": 8520,
    "uracy": 8521,
    "uriosity": 8522,
    "urity": 8523,
    "urous": 8524,
    "uration": 8525,
    "urg": 8526,
    "urb": 8527,
    " meadows": 8528,
    "otterdam": 8529,
    "otive": 8530,
    "oton": 8531,
    "otonous": 8532,
    "othe": 8533,
    "ceforth": 8534,
    "seiz": 8535,
    "sea": 8536,
    "enter": 8537,
    "enth": 8538,
    "veil": 8539,
    " redeem": 8540,
    " references": 8541,
    " receipt": 8542,
    " resemblance": 8543,
    " rejected": 8544,
    " relaxed": 8545,
    " reassure": 8546,
    " release": 8547,
    " replaced": 8548,
    " reference": 8549,
    " reverse": 8550,
    " recon": 8551,
    " ren": 8552,
    " red": 8553,
    " heaths": 8554,
    " heal": 8555,
    " heed": 8556,
    "stairs": 8557,
    "strong": 8558,
    "stained": 8559,
    "stood": 8560,
    "state": 8561,
    "stre": 8562,
    "strength": 8563,
    "league": 8564,
    "lead": 8565,
    "lear": 8566,
    "learned": 8567,
    "lea": 8568,
    " behaviour": 8569,
    " bears": 8570,
    "utation": 8571,
    "utes": 8572,
    "icating": 8573,
    "icer": 8574,
    " elixir": 8575,
    " etern": 8576,
    " eff": 8577,
    " lustrous": 8578,
    " lonely": 8579,
    " lulled": 8580,
    " lashes": 8581,
    " lines": 8582,
    " liter": 8583,
    " link": 8584,
    " lap": 8585,
    " lic": 8586,
    " ling": 8587,
    " lingered": 8588,
    " lat": 8589,
    " nuts": 8590,
    " numerous": 8591,
    " nook": 8592,
    " nay": 8593,
    " non": 8594,
    "ingale": 8595,
    " includes": 8596,
    " inexpressible": 8597,
    " inspirited": 8598,
    " insupportable": 8599,
    " insect": 8600,
    " thine": 8601,
    "arrival": 8602,
    "arrived": 8603,
    "aries": 8604,
    "around": 8605,
    " polit": 8606,
    " punish": 8607,
    " plaited": 8608,
    " packed": 8609,
    " punishment": 8610,
    " piece": 8611,
    " pangs": 8612,
    " pool": 8613,
    " piny": 8614,
    " pace": 8615,
    " pang": 8616,
    " pet": 8617,
    " pit": 8618,
    " pen": 8619,
    "assured": 8620,
    "asked": 8621,
    "analys": 8622,
    "anilla": 8623,
    "anvert": 8624,
    "anished": 8625,
    "another": 8626,
    "orous": 8627,
    " dusk": 8628,
    " dizzy": 8629,
    " dauntless": 8630,
    " dreary": 8631,
    " diligence": 8632,
    " double": 8633,
    " dashed": 8634,
    " drink": 8635,
    " damp": 8636,
    " dash": 8637,
    " doted": 8638,
    " dried": 8639,
    " dull": 8640,
    " dated": 8641,
    " dil": 8642,
    " dab": 8643,
    " di": 8644,
    " diabol": 8645,
    " today": 8646,
    " tot": 8647,
    " totally": 8648,
    " cries": 8649,
    " cell": 8650,
    " cord": 8651,
    " cry": 8652,
    "ital": 8653,
    "itle": 8654,
    "ites": 8655,
    "isited": 8656,
    "isive": 8657,
    " huge": 8658,
    " hilarity": 8659,
    " houses": 8660,
    " hushed": 8661,
    " hill": 8662,
    " hy": 8663,
    " IND": 8664,
    " Ir": 8665,
    " Irish": 8666,
    " Im": 8667,
    " Imm": 8668,
    " Immense": 8669,
    " IN": 8670,
    " foster": 8671,
    " fruit": 8672,
    " fertile": 8673,
    " farewell": 8674,
    " farm": 8675,
    " fitted": 8676,
    " fare": 8677,
    " fain": 8678,
    " fed": 8679,
    " federal": 8680,
    " fu": 8681,
    " fuel": 8682,
    " briefly": 8683,
    " baffled": 8684,
    " bolt": 8685,
    " basket": 8686,
    " blight": 8687,
    " bold": 8688,
    " ball": 8689,
    " bab": 8690,
    " ben": 8691,
    " benignity": 8692,
    "onstrate": 8693,
    "onies": 8694,
    "ator": 8695,
    "erver": 8696,
    "edition": 8697,
    " saintly": 8698,
    " sources": 8699,
    " sang": 8700,
    " sit": 8701,
    " operations": 8702,
    " omitted": 8703,
    " oars": 8704,
    " oak": 8705,
    " owe": 8706,
    " oar": 8707,
    " oat": 8708,
    " og": 8709,
    " motive": 8710,
    " mummy": 8711,
    " maker": 8712,
    " mule": 8713,
    " middle": 8714,
    " makes": 8715,
    " maint": 8716,
    " mile": 8717,
    " mood": 8718,
    " mort": 8719,
    " mate": 8720,
    " wrecked": 8721,
    " wert": 8722,
    " west": 8723,
    " win": 8724,
    "relapse": 8725,
    "relieved": 8726,
    "resembled": 8727,
    "receive": 8728,
    "received": 8729,
    "really": 8730,
    "reward": 8731,
    "rel": 8732,
    "increase": 8733,
    "injure": 8734,
    "including": 8735,
    "inement": 8736,
    "inish": 8737,
    "inn": 8738,
    " alighted": 8739,
    " aerial": 8740,
    " avert": 8741,
    " averse": 8742,
    " alike": 8743,
    " aught": 8744,
    " aided": 8745,
    " awe": 8746,
    " aud": 8747,
    "head": 8748,
    " tidings": 8749,
    " tapped": 8750,
    " tingling": 8751,
    " testim": 8752,
    " tinged": 8753,
    " tones": 8754,
    " takes": 8755,
    " tex": 8756,
    " tide": 8757,
    " tone": 8758,
    " tong": 8759,
    " till": 8760,
    " tim": 8761,
    "ô": 8762,
    "yielded": 8763,
    "ys": 8764,
    "yr": 8765,
    "yp": 8766,
    "walked": 8767,
    "warrant": 8768,
    "wretch": 8769,
    "wedding": 8770,
    "writ": 8771,
    "welt": 8772,
    "wide": 8773,
    "wife": 8774,
    "ware": 8775,
    "wich": 8776,
    "went": 8777,
    "visited": 8778,
    "viol": 8779,
    "vest": 8780,
    "vent": 8781,
    "ub": 8782,
    "tranquil": 8783,
    "true": 8784,
    "tastes": 8785,
    "taste": 8786,
    "task": 8787,
    "two": 8788,
    "town": 8789,
    "ties": 8790,
    "turn": 8791,
    "tort": 8792,
    "tot": 8793,
    "tou": 8794,
    "snowy": 8795,
    "safety": 8796,
    "softened": 8797,
    "surely": 8798,
    "spersed": 8799,
    "school": 8800,
    "sank": 8801,
    "sick": 8802,
    "serv": 8803,
    "sha": 8804,
    "sun": 8805,
    "roused": 8806,
    "rising": 8807,
    "rise": 8808,
    "punishment": 8809,
    "phys": 8810,
    "prec": 8811,
    "powers": 8812,
    "paused": 8813,
    "pile": 8814,
    "pri": 8815,
    "ped": 8816,
    "oh": 8817,
    "nearly": 8818,
    "northern": 8819,
    "native": 8820,
    "none": 8821,
    "near": 8822,
    "nter": 8823,
    "memory": 8824,
    "melancholy": 8825,
    "motives": 8826,
    "midnight": 8827,
    "mock": 8828,
    "mortal": 8829,
    "minds": 8830,
    "motion": 8831,
    "make": 8832,
    "mild": 8833,
    "mber": 8834,
    "mers": 8835,
    "mus": 8836,
    "mant": 8837,
    "lines": 8838,
    "lower": 8839,
    "late": 8840,
    "jury": 8841,
    "jured": 8842,
    "iognomy": 8843,
    "ienced": 8844,
    "iature": 8845,
    "ibed": 8846,
    "ians": 8847,
    "ivers": 8848,
    "iend": 8849,
    "iate": 8850,
    "ient": 8851,
    "hands": 8852,
    "houses": 8853,
    "hitherto": 8854,
    "hours": 8855,
    "hist": 8856,
    "home": 8857,
    "hour": 8858,
    "hand": 8859,
    "hur": 8860,
    "gathered": 8861,
    "gigantic": 8862,
    "gall": 8863,
    "go": 8864,
    "finish": 8865,
    "finished": 8866,
    "finding": 8867,
    "fool": 8868,
    "fishing": 8869,
    "fancy": 8870,
    "fact": 8871,
    "filled": 8872,
    "feared": 8873,
    "flo": 8874,
    "food": 8875,
    "fra": 8876,
    "fate": 8877,
    "far": 8878,
    "electricity": 8879,
    "effort": 8880,
    "effect": 8881,
    "een": 8882,
    "different": 8883,
    "drink": 8884,
    "door": 8885,
    "dying": 8886,
    "dwelling": 8887,
    "daughter": 8888,
    "down": 8889,
    "during": 8890,
    "dry": 8891,
    "copyright": 8892,
    "collected": 8893,
    "beloved": 8894,
    "better": 8895,
    "both": 8896,
    "boy": 8897,
    "band": 8898,
    "acted": 8899,
    "apt": 8900,
    "Yes": 8901,
    "Where": 8902,
    "Un": 8903,
    "Tears": 8904,
    "Th": 8905,
    "Surely": 8906,
    "Scotland": 8907,
    "Six": 8908,
    "Sometimes": 8909,
    "Sw": 8910,
    "So": 8911,
    "SS": 8912,
    "Remember": 8913,
    "Ru": 8914,
    "Re": 8915,
    "Plutarch": 8916,
    "Pardon": 8917,
    "Plain": 8918,
    "Presently": 8919,
    "OSE": 8920,
    "Other": 8921,
    "Nor": 8922,
    "Matlock": 8923,
    "Morning": 8924,
    "Man": 8925,
    "Mr": 8926,
    "Last": 8927,
    "LE": 8928,
    "July": 8929,
    "IRECT": 8930,
    "IVE": 8931,
    "Ingolstadt": 8932,
    "Her": 8933,
    "God": 8934,
    "French": 8935,
    "Even": 8936,
    "Defect": 8937,
    "Dearest": 8938,
    "Devil": 8939,
    "Day": 8940,
    "Ch": 8941,
    "Aut": 8942,
    "Ay": 8943,
    "Ah": 8944,
    ":—": 8945,
    "84": 8946,
    "62": 8947,
    "21": 8948,
    "01": 8949,
    "00": 8950,
    ".—": 8951,
    ",—": 8952,
    " utensils": 8953,
    " ***": 8954,
    " ices": 8955,
    " 8": 8956,
    " #": 8957,
    "000": 8958,
    "215": 8959,
    "2154": 8960,
    "21541": 8961,
    "6221541": 8962,
    "Autumn": 8963,
    "Author": 8964,
    "Christian": 8965,
    "Child": 8966,
    "Defects": 8967,
    "Godwin": 8968,
    "LEA": 8969,
    "LEASE": 8970,
    "Reuss": 8971,
    "Release": 8972,
    "Ruins": 8973,
    "Ruined": 8974,
    "SSI": 8975,
    "SSIBILITY": 8976,
    "Switzerland": 8977,
    "Swiss": 8978,
    "Through": 8979,
    "Those": 8980,
    "Unhappy": 8981,
    "United": 8982,
    "aptain": 8983,
    "boyhood": 8984,
    "boys": 8985,
    "fragment": 8986,
    "fraid": 8987,
    "floating": 8988,
    "float": 8989,
    "facts": 8990,
    "foolish": 8991,
    "goals": 8992,
    "gallant": 8993,
    "hurried": 8994,
    "hurt": 8995,
    "handle": 8996,
    "histories": 8997,
    "history": 8998,
    "iversal": 8999,
    "manteau": 9000,
    "mantel": 9001,
    "muscles": 9002,
    "musical": 9003,
    "mildness": 9004,
    "motionless": 9005,
    "mockery": 9006,
    "ohn": 9007,
    "pedest": 9008,
    "pedestri": 9009,
    "pedestrian": 9010,
    "prize": 9011,
    "priated": 9012,
    "precaution": 9013,
    "precarious": 9014,
    "physiognomy": 9015,
    "physician": 9016,
    "sunrise": 9017,
    "shaken": 9018,
    "shake": 9019,
    "servant": 9020,
    "serves": 9021,
    "sickening": 9022,
    "sickened": 9023,
    "schoolboys": 9024,
    "schoolmaster": 9025,
    "touched": 9026,
    "touch": 9027,
    "totally": 9028,
    "total": 9029,
    "tortured": 9030,
    "torture": 9031,
    "turns": 9032,
    "ubri": 9033,
    "ubrious": 9034,
    "venteen": 9035,
    "ventured": 9036,
    "violates": 9037,
    "violence": 9038,
    "written": 9039,
    "writhed": 9040,
    "warranties": 9041,
    "ypress": 9042,
    "ypo": 9043,
    "ypocr": 9044,
    "ypocritical": 9045,
    "yram": 9046,
    "yramids": 9047,
    "yrs": 9048,
    "yss": 9049,
    "ôme": 9050,
    "ôle": 9051,
    " timorous": 9052,
    " timid": 9053,
    " tongues": 9054,
    " tongue": 9055,
    " texts": 9056,
    " text": 9057,
    " texture": 9058,
    " testimonies": 9059,
    " testimony": 9060,
    " audibly": 9061,
    " audible": 9062,
    "innacle": 9063,
    "inner": 9064,
    "injurer": 9065,
    "relations": 9066,
    "relation": 9067,
    " mortification": 9068,
    " mortals": 9069,
    " maintaining": 9070,
    " maintained": 9071,
    " ognor": 9072,
    " ogre": 9073,
    " oatme": 9074,
    " oatmeal": 9075,
    " oaten": 9076,
    "atoriness": 9077,
    " babes": 9078,
    " babe": 9079,
    " ballots": 9080,
    " fainting": 9081,
    " fainter": 9082,
    " farmhouse": 9083,
    " fruitlessly": 9084,
    " fruitless": 9085,
    " fosterage": 9086,
    " INC": 9087,
    " INCL": 9088,
    " INCLU": 9089,
    " INCLUD": 9090,
    " INCLUDING": 9091,
    " INDIRECT": 9092,
    " INDEM": 9093,
    " INDEMN": 9094,
    " INDEMNITY": 9095,
    " hyster": 9096,
    " hysterics": 9097,
    " hyper": 9098,
    " hyperte": 9099,
    " hypertext": 9100,
    " cordial": 9101,
    " diabolically": 9102,
    " diabolical": 9103,
    " dabbled": 9104,
    " dabble": 9105,
    " dilatoriness": 9106,
    " dilatory": 9107,
    " dusky": 9108,
    "analysing": 9109,
    "analysis": 9110,
    " penury": 9111,
    " pitied": 9112,
    " pitch": 9113,
    " pitchy": 9114,
    " pettic": 9115,
    " pettico": 9116,
    " petticoat": 9117,
    " petty": 9118,
    " politics": 9119,
    " politic": 9120,
    " nonprop": 9121,
    " nonproprietary": 9122,
    " latitude": 9123,
    " later": 9124,
    " lichen": 9125,
    " licen": 9126,
    " licensed": 9127,
    " lapse": 9128,
    " literature": 9129,
    " literally": 9130,
    " effusions": 9131,
    " efface": 9132,
    " eternally": 9133,
    " eternity": 9134,
    "leaves": 9135,
    "leaved": 9136,
    "strongly": 9137,
    " heeded": 9138,
    " healed": 9139,
    " redress": 9140,
    " renounce": 9141,
    " renamed": 9142,
    " reconcile": 9143,
    " reconc": 9144,
    " reconciled": 9145,
    "enterprise": 9146,
    "seized": 9147,
    "seize": 9148,
    "othered": 9149,
    "othec": 9150,
    "othecary": 9151,
    "urbul": 9152,
    "urbulence": 9153,
    "urgling": 9154,
    "urgus": 9155,
    " golden": 9156,
    "idelity": 9157,
    "idels": 9158,
    " forsakes": 9159,
    " forsaken": 9160,
    " ascertaining": 9161,
    " dealing": 9162,
    " debarred": 9163,
    " wearied": 9164,
    " wearying": 9165,
    " weighs": 9166,
    "thirsted": 9167,
    " concert": 9168,
    " concus": 9169,
    " concussion": 9170,
    " style": 9171,
    " stimulus": 9172,
    " stimulated": 9173,
    " striving": 9174,
    " strife": 9175,
    " stagge": 9176,
    " staggered": 9177,
    " stageco": 9178,
    " stagecoach": 9179,
    " shroud": 9180,
    " shrine": 9181,
    " shamefully": 9182,
    "ulpated": 9183,
    "ulpit": 9184,
    " sexes": 9185,
    " sealed": 9186,
    "alleging": 9187,
    "alleged": 9188,
    "querades": 9189,
    "quickly": 9190,
    "indulgence": 9191,
    "indulged": 9192,
    "reaths": 9193,
    "ravesend": 9194,
    "rapidly": 9195,
    " Adieu": 9196,
    " Add": 9197,
    " Additional": 9198,
    " Austrian": 9199,
    " Austria": 9200,
    "umbered": 9201,
    "umbers": 9202,
    " unequal": 9203,
    " unequ": 9204,
    " unequalled": 9205,
    " manifested": 9206,
    " manifold": 9207,
    " Muhammadan": 9208,
    " Menno": 9209,
    " Mississ": 9210,
    " Mississi": 9211,
    " Mississipp": 9212,
    " Mississippi": 9213,
    "rannical": 9214,
    "ranny": 9215,
    "veniences": 9216,
    "veniently": 9217,
    "agrants": 9218,
    "agrant": 9219,
    "agreeable": 9220,
    " choked": 9221,
    " choic": 9222,
    " choicest": 9223,
    " churchy": 9224,
    " churchyard": 9225,
    " desperately": 9226,
    " desperation": 9227,
    " dispelled": 9228,
    " dispell": 9229,
    " dispelling": 9230,
    " disquisitions": 9231,
    " disquisition": 9232,
    " willowy": 9233,
    " arrowy": 9234,
    " arteries": 9235,
    " artery": 9236,
    " arrested": 9237,
    "inexting": 9238,
    "inextinguish": 9239,
    "inextinguishable": 9240,
    "inexper": 9241,
    "inexperience": 9242,
    " immeasurable": 9243,
    " immeasur": 9244,
    " immeasurably": 9245,
    " BEF": 9246,
    " BEFO": 9247,
    " BEFORE": 9248,
    "arers": 9249,
    " EXCE": 9250,
    " EXCEP": 9251,
    " EXCEPT": 9252,
    " EXP": 9253,
    " EXPRE": 9254,
    " EXPRESS": 9255,
    " energies": 9256,
    " energy": 9257,
    " noisome": 9258,
    " noisy": 9259,
    " ridges": 9260,
    " ridic": 9261,
    " ridicule": 9262,
    " perturbed": 9263,
    " pertin": 9264,
    " pertinacity": 9265,
    " removal": 9266,
    " removes": 9267,
    " remotest": 9268,
    " remoter": 9269,
    "irectly": 9270,
    " PGLA": 9271,
    " PGLAF": 9272,
    " PUR": 9273,
    " PURP": 9274,
    " PURPOSE": 9275,
    " PUN": 9276,
    " PUNIT": 9277,
    " PUNITIVE": 9278,
    " Professor": 9279,
    " Prov": 9280,
    " Providence": 9281,
    "retrievably": 9282,
    "retrievable": 9283,
    " experiments": 9284,
    " experiment": 9285,
    "sullied": 9286,
    "sullen": 9287,
    "subscribe": 9288,
    "subsist": 9289,
    "successors": 9290,
    "successful": 9291,
    " entranced": 9292,
    " entranc": 9293,
    " entrancingly": 9294,
    " CONTENT": 9295,
    " CONTENTS": 9296,
    " CONTRA": 9297,
    " CONTRACT": 9298,
    " Compliance": 9299,
    " Company": 9300,
    " endowments": 9301,
    "forbear": 9302,
    "forbid": 9303,
    "forbidden": 9304,
    "forceability": 9305,
    " retrospect": 9306,
    " retrod": 9307,
    " obedient": 9308,
    " obedience": 9309,
    " blameless": 9310,
    " blamable": 9311,
    " overpower": 9312,
    " overpowering": 9313,
    " overpow": 9314,
    " overpowered": 9315,
    " overtake": 9316,
    " overta": 9317,
    " overtaxed": 9318,
    " adjuration": 9319,
    " adjac": 9320,
    " adjacent": 9321,
    "planation": 9322,
    "remembering": 9323,
    " resistless": 9324,
    " attainment": 9325,
    " Overjoyed": 9326,
    "loading": 9327,
    "loathsome": 9328,
    "loathing": 9329,
    " Laus": 9330,
    " Lausan": 9331,
    " Lausanne": 9332,
    " Louisa": 9333,
    " howlings": 9334,
    " ravenous": 9335,
    " impediments": 9336,
    " impediment": 9337,
    " impassive": 9338,
    " impassable": 9339,
    " repairing": 9340,
    "ignorantly": 9341,
    "ignorant": 9342,
    " Deprived": 9343,
    " Depart": 9344,
    " prudence": 9345,
    " prudent": 9346,
    " purchasing": 9347,
    " purchase": 9348,
    " recovering": 9349,
    " murmured": 9350,
    " murmuring": 9351,
    "spoken": 9352,
    "spoil": 9353,
    "spoiler": 9354,
    "exhortations": 9355,
    "exhib": 9356,
    "exhibited": 9357,
    "experienced": 9358,
    "experimental": 9359,
    "experimentalist": 9360,
    "shutters": 9361,
    "shortened": 9362,
    " depositing": 9363,
    " deposited": 9364,
    " instinctively": 9365,
    " bridge": 9366,
    " bridal": 9367,
    " localities": 9368,
    " locations": 9369,
    " confidential": 9370,
    " empires": 9371,
    " empire": 9372,
    " emergency": 9373,
    " emergenc": 9374,
    " emergencies": 9375,
    "appeals": 9376,
    "appeal": 9377,
    "appreci": 9378,
    "appreciate": 9379,
    "apprehen": 9380,
    "apprehension": 9381,
    "apparently": 9382,
    " extracting": 9383,
    " outrages": 9384,
    " outraged": 9385,
    "overhangs": 9386,
    "overhanging": 9387,
    "complished": 9388,
    "complained": 9389,
    "pronouncing": 9390,
    "pronounced": 9391,
    "answered": 9392,
    "answer": 9393,
    "assassinated": 9394,
    " flourishing": 9395,
    " flourished": 9396,
    " flowery": 9397,
    " syndics": 9398,
    " syndic": 9399,
    " regularity": 9400,
    " intervening": 9401,
    " intervened": 9402,
    " Relieve": 9403,
    " Rely": 9404,
    " Redistributing": 9405,
    " Redistribut": 9406,
    " Redistribution": 9407,
    " Resolved": 9408,
    " Reserve": 9409,
    " Romulus": 9410,
    " Romans": 9411,
    " illustrated": 9412,
    " illustrate": 9413,
    "displaying": 9414,
    "displayed": 9415,
    "dismissed": 9416,
    "dismiss": 9417,
    "dismissing": 9418,
    "criptions": 9419,
    "\n            ": 9420,
    "\n               ": 9421,
    " calamities": 9422,
    " calamity": 9423,
    "phraseol": 9424,
    "phraseology": 9425,
    "avidity": 9426,
    " ruggedness": 9427,
    "worthiness": 9428,
    " acquaintances": 9429,
    " acquaintance": 9430,
    "internal": 9431,
    " caprices": 9432,
    " caprice": 9433,
    " capacities": 9434,
    " capacious": 9435,
    " magnitude": 9436,
    " magnet": 9437,
    " irradiation": 9438,
    " irradiated": 9439,
    " employees": 9440,
    " employee": 9441,
    " ministers": 9442,
    " prognosticate": 9443,
    " prognosticated": 9444,
    "courageous": 9445,
    "racticability": 9446,
    "racticable": 9447,
    " corrections": 9448,
    " corrected": 9449,
    " swimming": 9450,
    " astounding": 9451,
    " astounded": 9452,
    " articles": 9453,
    " article": 9454,
    " coarsest": 9455,
    " coarser": 9456,
    " joints": 9457,
    "secretly": 9458,
    " grappling": 9459,
    " grapple": 9460,
    " medicines": 9461,
    " medicine": 9462,
    "occasioned": 9463,
    "eventual": 9464,
    " perpendicularity": 9465,
    "structor": 9466,
    " arrangements": 9467,
    "inferiors": 9468,
    "inferior": 9469,
    "presentiment": 9470,
    " dominions": 9471,
    " dominion": 9472,
    " orientalist": 9473,
    " orientalists": 9474,
    "criminality": 9475,
    "criminately": 9476,
    " instructors": 9477,
    " instructing": 9478,
    " apprehending": 9479,
    " apprehended": 9480,
    " Angelic": 9481,
    " Angelica": 9482,
    " Angel": 9483,
    " inexperienced": 9484,
    " inexperience": 9485,
    " postponed": 9486,
    " postpone": 9487,
    " tyrants": 9488,
    " tyrant": 9489,
    "watchful": 9490,
    "guiltless": 9491,
    " eradicating": 9492,
    " eradicated": 9493,
    "ospitality": 9494,
    "ospitably": 9495,
    "depraved": 9496,
    "deprav": 9497,
    "depravity": 9498,
    " antique": 9499,
    " antiqu": 9500,
    " antiquity": 9501,
    " anticipations": 9502,
    " anticipation": 9503,
    " luxuriant": 9504,
    " luxurious": 9505,
    " deduced": 9506,
    " deduce": 9507,
    " cruellest": 9508,
    " cruelly": 9509,
    " buildings": 9510,
    " building": 9511,
    "condemned": 9512,
    "condemn": 9513,
    "LIABILITY": 9514,
    "LIAB": 9515,
    "LIABLE": 9516,
    "benefactors": 9517,
    "benefactor": 9518,
    " erroneously": 9519,
    " erroneous": 9520,
    "intellectual": 9521,
    " Orkneys": 9522,
    " massacring": 9523,
    " massacred": 9524,
    "sympathised": 9525,
    "sympathy": 9526,
    "oxysms": 9527,
    "familiarly": 9528,
    "familiar": 9529,
    "ATIONS": 9530,
    "luxuriant": 9531,
    "luxuri": 9532,
    "luxuriances": 9533,
    " adventurer": 9534,
    " DISTRIBUTOR": 9535,
    " DISTRIBUTE": 9536,
    " distrusted": 9537,
    " Greenwich": 9538,
    " Greenland": 9539,
    " organization": 9540,
    " organized": 9541,
    "lifelessness": 9542,
    " achievements": 9543,
    " teachers": 9544,
    "surprising": 9545,
    "surprised": 9546,
    "Englishman": 9547,
    "Agrippa": 9548,
    "AMAGE": 9549,
    "CID": 9550,
    "CIDENT": 9551,
    "CIDENTAL": 9552,
    "Concerning": 9553,
    "Explanation": 9554,
    "England": 9555,
    "Islands": 9556,
    "LAI": 9557,
    "LAIM": 9558,
    "LAIMER": 9559,
    "LAC": 9560,
    "LACEMENT": 9561,
    "Maybe": 9562,
    "Montanvert": 9563,
    "Montc": 9564,
    "Montcla": 9565,
    "Montclair": 9566,
    "Parli": 9567,
    "Parliam": 9568,
    "Parliament": 9569,
    "START": 9570,
    "TRICT": 9571,
    "Updated": 9572,
    "cherished": 9573,
    "dreaded": 9574,
    "dogmat": 9575,
    "dogmatism": 9576,
    "dogs": 9577,
    "ebooks": 9578,
    "fearfully": 9579,
    "fearful": 9580,
    "firmness": 9581,
    "glorious": 9582,
    "glance": 9583,
    "glad": 9584,
    "gladness": 9585,
    "genius": 9586,
    "genial": 9587,
    "genu": 9588,
    "genuity": 9589,
    "groundwork": 9590,
    "hamlet": 9591,
    "hips": 9592,
    "lerably": 9593,
    "lerated": 9594,
    "moil": 9595,
    "north": 9596,
    "panish": 9597,
    "panic": 9598,
    "panes": 9599,
    "pictures": 9600,
    "picturesque": 9601,
    "passage": 9602,
    "surv": 9603,
    "survivors": 9604,
    "shapes": 9605,
    "situations": 9606,
    "sinking": 9607,
    "sincerely": 9608,
    "sincere": 9609,
    "torches": 9610,
    "torments": 9611,
    "torment": 9612,
    "tormented": 9613,
    "virtues": 9614,
    "victims": 9615,
    "wandered": 9616,
    "wantonly": 9617,
    "wanton": 9618,
    "wantonness": 9619,
    "woods": 9620,
    "zzling": 9621,
    " teach": 9622,
    " aimed": 9623,
    " achieved": 9624,
    "invo": 9625,
    "invoked": 9626,
    "revolved": 9627,
    "rendered": 9628,
    "rending": 9629,
    "rende": 9630,
    "rendez": 9631,
    "rendezv": 9632,
    "rendezvous": 9633,
    "renewed": 9634,
    " warbling": 9635,
    " wiping": 9636,
    " wiped": 9637,
    " wipe": 9638,
    " sixteen": 9639,
    " sixth": 9640,
    "educ": 9641,
    "educate": 9642,
    " basest": 9643,
    " budding": 9644,
    " foldings": 9645,
    " fanciful": 9646,
    " faintness": 9647,
    " humid": 9648,
    "ithets": 9649,
    "ithered": 9650,
    "itheat": 9651,
    "itheatre": 9652,
    " century": 9653,
    " centred": 9654,
    " centre": 9655,
    " candle": 9656,
    " clapping": 9657,
    " circul": 9658,
    " circulates": 9659,
    " coolness": 9660,
    " topic": 9661,
    " towering": 9662,
    " towered": 9663,
    " towers": 9664,
    " dictated": 9665,
    "ordsworth": 9666,
    "aneg": 9667,
    "anegy": 9668,
    "anegyric": 9669,
    " paternal": 9670,
    " patches": 9671,
    " patri": 9672,
    " patriot": 9673,
    " population": 9674,
    " populous": 9675,
    " popular": 9676,
    " pierce": 9677,
    " pardoning": 9678,
    "arrange": 9679,
    " novelty": 9680,
    " elder": 9681,
    " whirlwind": 9682,
    "alkland": 9683,
    "alking": 9684,
    " galv": 9685,
    " galvan": 9686,
    " galvanism": 9687,
    " getting": 9688,
    " gallery": 9689,
    " gallant": 9690,
    " withdrawn": 9691,
    "rocky": 9692,
    "rieve": 9693,
    "rilliant": 9694,
    "rievously": 9695,
    "threaten": 9696,
    " consecrated": 9697,
    "lified": 9698,
    "charnel": 9699,
    "charities": 9700,
    "charact": 9701,
    "character": 9702,
    " suggested": 9703,
    " exasperate": 9704,
    " vigorous": 9705,
    " vigil": 9706,
    " vigilance": 9707,
    " vigour": 9708,
    "estimable": 9709,
    "respected": 9710,
    " issued": 9711,
    "earnestness": 9712,
    "emplified": 9713,
    "empires": 9714,
    "empest": 9715,
    " splint": 9716,
    " splintered": 9717,
    " spoiled": 9718,
    " springs": 9719,
    "accountable": 9720,
    " AGREEMENT": 9721,
    "decisive": 9722,
    "decreased": 9723,
    "decor": 9724,
    "decorations": 9725,
    "degree": 9726,
    "deadly": 9727,
    " orders": 9728,
    " organs": 9729,
    " unsatisfact": 9730,
    " unsatisfactory": 9731,
    " prosperous": 9732,
    " produces": 9733,
    " processing": 9734,
    " Mission": 9735,
    " Milanese": 9736,
    " Service": 9737,
    "rankness": 9738,
    "unwillingness": 9739,
    "astonishing": 9740,
    " chivalrous": 9741,
    " kingd": 9742,
    " kingdoms": 9743,
    " neater": 9744,
    " Email": 9745,
    " Emp": 9746,
    " Empires": 9747,
    " Emb": 9748,
    " Embrace": 9749,
    " Evil": 9750,
    " Exhaust": 9751,
    " Exhaustion": 9752,
    " European": 9753,
    " ensuring": 9754,
    " rules": 9755,
    "havoc": 9756,
    " perilous": 9757,
    " Greci": 9758,
    " Grecians": 9759,
    " expanding": 9760,
    " complac": 9761,
    " complacency": 9762,
    " computers": 9763,
    " compensate": 9764,
    "subdu": 9765,
    "subduing": 9766,
    "supernatural": 9767,
    "superior": 9768,
    "superable": 9769,
    " Contributions": 9770,
    " Contact": 9771,
    " Continu": 9772,
    " Continue": 9773,
    "forgetfulness": 9774,
    "forgetting": 9775,
    " obstinate": 9776,
    " obstacle": 9777,
    " obstac": 9778,
    " obstacles": 9779,
    " blotted": 9780,
    " quarter": 9781,
    "performing": 9782,
    "performs": 9783,
    " district": 9784,
    " Lyons": 9785,
    " Lyn": 9786,
    " Lynn": 9787,
    " Lyc": 9788,
    " Lycurgus": 9789,
    " faithful": 9790,
    " poignantly": 9791,
    " royalty": 9792,
    " importance": 9793,
    " Italians": 9794,
    " reproduce": 9795,
    " represented": 9796,
    " reports": 9797,
    " republican": 9798,
    " republics": 9799,
    " climbing": 9800,
    " classifications": 9801,
    " classes": 9802,
    " DISC": 9803,
    " DISCLAIMER": 9804,
    " recompens": 9805,
    " recompensing": 9806,
    " commiserate": 9807,
    "authority": 9808,
    " guessing": 9809,
    " surmounted": 9810,
    " indelibly": 9811,
    "blackness": 9812,
    " glutted": 9813,
    " trampled": 9814,
    " suppressing": 9815,
    " beggars": 9816,
    " fluctuate": 9817,
    " traitor": 9818,
    " identification": 9819,
    " relinquishing": 9820,
    " relinquished": 9821,
    " relinquish": 9822,
    " intercepted": 9823,
    " REP": 9824,
    " REPLACEMENT": 9825,
    " REF": 9826,
    " REFU": 9827,
    " REFUND": 9828,
    " REA": 9829,
    " READ": 9830,
    " Russian": 9831,
    "youthful": 9832,
    " betrayed": 9833,
    " listlessly": 9834,
    " adventurous": 9835,
    " advancement": 9836,
    "companion": 9837,
    "compassionate": 9838,
    "consciousness": 9839,
    " persuades": 9840,
    " cleaning": 9841,
    "undertake": 9842,
[...]
